#include <cstdint>

#include "models/model_int8_tflm_optimized_model_data.h"

alignas(16) const unsigned char g_model_int8_tflm_optimized_model_data[] = {0x1c,0x0,0x0,0x0,0x54,0x46,0x4c,0x33,0x0,0x0,0x12,0x0,0x18,0x0,0x4,0x0,0x8,0x0,0xc,0x0,0x0,0x0,0x10,0x0,0x0,0x0,0x14,0x0,0x12,0x0,0x0,0x0,0x3,0x0,0x0,0x0,0x54,0xea,0x0,0x0,0x14,0xe1,0x0,0x0,0x64,0x0,0x0,0x0,0x4,0x0,0x0,0x0,0x2,0x0,0x0,0x0,0x34,0x0,0x0,0x0,0x4,0x0,0x0,0x0,0xdc,0xff,0xff,0xff,0x8,0x0,0x0,0x0,0x13,0x0,0x0,0x0,0x13,0x0,0x0,0x0,0x43,0x4f,0x4e,0x56,0x45,0x52,0x53,0x49,0x4f,0x4e,0x5f,0x4d,0x45,0x54,0x41,0x44,0x41,0x54,0x41,0x0,0x8,0x0,0xc,0x0,0x4,0x0,0x8,0x0,0x8,0x0,0x0,0x0,0x8,0x0,0x0,0x0,0x12,0x0,0x0,0x0,0x13,0x0,0x0,0x0,0x6d,0x69,0x6e,0x5f,0x72,0x75,0x6e,0x74,0x69,0x6d,0x65,0x5f,0x76,0x65,0x72,0x73,0x69,0x6f,0x6e,0x0,0x14,0x0,0x0,0x0,0xa4,0xe0,0x0,0x0,0x9c,0xe0,0x0,0x0,0x78,0xe0,0x0,0x0,0x34,0xe0,0x0,0x0,0xa0,0xdd,0x0,0x0,0x8c,0xdc,0x0,0x0,0x78,0x14,0x0,0x0,0xe4,0x13,0x0,0x0,0xd0,0x1,0x0,0x0,0x7c,0x1,0x0,0x0,0xd8,0x0,0x0,0x0,0xd0,0x0,0x0,0x0,0xc8,0x0,0x0,0x0,0xc0,0x0,0x0,0x0,0xb8,0x0,0x0,0x0,0xb0,0x0,0x0,0x0,0xa8,0x0,0x0,0x0,0xa0,0x0,0x0,0x0,0x78,0x0,0x0,0x0,0x4,0x0,0x0,0x0,0xd6,0x1f,0xff,0xff,0x4,0x0,0x0,0x0,0x58,0x0,0x0,0x0,0xc,0x0,0x0,0x0,0x8,0x0,0xe,0x0,0x8,0x0,0x4,0x0,0x8,0x0,0x0,0x0,0x10,0x0,0x0,0x0,0x28,0x0,0x0,0x0,0x0,0x0,0x6,0x0,0x8,0x0,0x4,0x0,0x6,0x0,0x0,0x0,0x4,0x0,0x0,0x0,0x1,0x0,0x0,0x0,0xeb,0x3,0x0,0x0,0x0,0x0,0xa,0x0,0x10,0x0,0xc,0x0,0x8,0x0,0x4,0x0,0xa,0x0,0x0,0x0,0x1,0x0,0x0,0x0,0x2,0x0,0x0,0x0,0x4,0x0,0x0,0x0,0x6,0x0,0x0,0x0,0x32,0x2e,0x31,0x30,0x2e,0x30,0x0,0x0,0x0,0x0,0x0,0x0,0x0,0x0,0x0,0x0,0x0,0x0,0x0,0x0,0x46,0x20,0xff,0xff,0x4,0x0,0x0,0x0,0x10,0x0,0x0,0x0,0x31,0x2e,0x31,0x34,0x2e,0x30,0x0,0x0,0x0,0x0,0x0,0x0,0x0,0x0,0x0,0x0,0x0,0x0,0x0,0x0,0x0,0x0,0x0,0x0,0x98,0x17,0xff,0xff,0x9c,0x17,0xff,0xff,0xa0,0x17,0xff,0xff,0xa4,0x17,0xff,0xff,0xa8,0x17,0xff,0xff,0xac,0x17,0xff,0xff,0xb0,0x17,0xff,0xff,0x86,0x20,0xff,0xff,0x4,0x0,0x0,0x0,0x90,0x0,0x0,0x0,0x88,0xd3,0x7f,0xf9,0x3f,0x3a,0x13,0x10,0xb,0xd2,0xb0,0xd5,0x12,0x81,0x89,0x9,0xaa,0x5,0x26,0x1a,0x23,0x0,0x23,0xd1,0x81,0xca,0xc2,0x38,0xf3,0x83,0x2f,0x8,0x81,0xee,0x8b,0xf8,0xb9,0xc9,0x1a,0x81,0xe0,0x17,0xdd,0x8d,0xd,0xa3,0x81,0xa0,0xb7,0xf1,0x74,0x13,0xfe,0xa8,0x10,0xf8,0xe1,0x38,0x81,0xf5,0x6b,0x11,0x63,0x5,0x2b,0xbd,0xd8,0x17,0xb1,0x81,0x9c,0xbf,0x92,0xe0,0xfe,0xdf,0x82,0x81,0x22,0xd8,0xc9,0xd4,0x3d,0x1b,0x3f,0x4a,0x81,0x61,0xed,0xff,0x27,0x2c,0x81,0xd6,0x6b,0xf5,0x9f,0x0,0x3c,0xaf,0x9a,0xe6,0x21,0x96,0xc8,0x7f,0xb3,0xc1,0xe5,0xea,0x4c,0x5c,0x9f,0xb4,0x18,0x8a,0x81,0xe0,0xb,0x30,0x96,0xdf,0x15,0xd4,0x81,0xb7,0xdb,0x36,0xdf,0xb4,0x22,0x81,0xd0,0xfa,0x31,0xc9,0x5b,0xa5,0xd6,0x3d,0x81,0xcd,0x1b,0xf8,0x0,0x0,0x0,0x0,0x26,0x21,0xff,0xff,0x4,0x0,0x0,0x0,0x40,0x0,0x0,0x0,0x19,0x63,0xff,0xff,0x65,0xdd,0xff,0xff,0xa3,0xf2,0xff,0xff,0xae,0xef,0xff,0xff,0x42,0xfa,0xff,0xff,0xd9,0xca,0xff,0xff,0xcd,0x91,0xff,0xff,0x82,0xee,0xff,0xff,0x4d,0xdc,0xff,0xff,0xbf,0x6c,0xff,0xff,0x2e,0xe,0xff,0xff,0xf7,0xfa,0xff,0xff,0x49,0x63,0xff,0xff,0xb3,0xed,0xff,0xff,0x68,0x85,0xff,0xff,0x7c,0xd3,0xff,0xff,0x0,0x0,0x0,0x0,0x76,0x21,0xff,0xff,0x4,0x0,0x0,0x0,0x0,0x12,0x0,0x0,0xff,0xe1,0xd5,0xe8,0xff,0x9,0x6,0xf1,0xf9,0x9,0xc,0xd1,0x8,0xe9,0xfa,0x33,0xa,0xf7,0xf8,0x1e,0xf7,0x11,0xfa,0xd5,0xfb,0x2,0xf3,0xb1,0x9,0xbe,0x0,0x10,0x2c,0xf0,0x2c,0x12,0xc4,0x14,0xe9,0xf,0x1,0x10,0xdb,0x82,0xf,0xd8,0xed,0xc1,0x3,0xfe,0xf4,0xf4,0x0,0xe5,0xd5,0xb7,0x5,0xe7,0xe,0x5,0xfd,0x6,0xf6,0x0,0x8,0xfe,0xae,0xe2,0x8,0xf5,0xf3,0x95,0xf6,0x17,0x4,0xd0,0xfd,0xf2,0xa,0x15,0xd5,0x11,0x0,0x5,0xed,0x7,0x32,0xe1,0x13,0x18,0xf2,0xe,0x3,0xef,0xc,0x17,0xeb,0xd,0x10,0xe2,0xc,0xca,0xc0,0xe5,0x4,0xe4,0x8,0xf7,0xf2,0x7,0xff,0xdd,0xf1,0xea,0xf8,0x81,0xd,0xb0,0xe9,0xb8,0xed,0xc5,0x17,0xf2,0xec,0x1c,0x5,0xfc,0x7,0xf,0xfe,0xa1,0xf1,0x13,0x2f,0xcb,0x5,0xd9,0x21,0x2d,0xf8,0xf8,0xf,0xf,0xd7,0x6,0x4,0xb,0xf8,0xfb,0xd0,0x2,0xff,0xff,0xea,0xf3,0xf3,0xd,0xf2,0xfe,0xf3,0xfb,0xfb,0xe9,0xf4,0xd,0x1,0x9,0xfa,0xea,0xec,0xf5,0xf9,0x3,0xed,0xf7,0x1,0xed,0x0,0xe7,0xfd,0x16,0xfd,0xf8,0xf9,0xfe,0xfe,0x81,0x3,0xf3,0xfd,0x12,0xfe,0x5,0xeb,0xf2,0x2,0xf2,0xc6,0xfd,0xfe,0xee,0xcf,0xf1,0xf6,0xea,0xeb,0x4,0x1a,0x0,0x2,0xdf,0xb,0xb,0xcb,0x6,0xfc,0xd9,0xed,0xf1,0xf8,0xed,0xdf,0xfe,0xe,0xf5,0x0,0xfc,0xa,0x11,0xe2,0xea,0xfd,0x7,0xf9,0xff,0x7,0xd,0xff,0xf2,0xeb,0x0,0xe0,0xf9,0x10,0xe0,0xdf,0xf1,0x6,0xcd,0xd6,0xff,0xf2,0xd,0xfd,0x1,0xe9,0xa,0xfb,0xdb,0xa,0xbf,0xfb,0xc,0x7,0xcd,0xee,0xe7,0xef,0x8,0xee,0xe1,0xfa,0xf4,0x1b,0xff,0xc,0xf7,0x3,0x6,0x3,0xdb,0xef,0xe7,0xfa,0x28,0xf9,0xed,0xea,0x21,0xc2,0x1c,0x4,0xf3,0x33,0xf6,0xf7,0xf0,0xfb,0x3c,0x12,0x1,0x12,0x22,0x8,0xf9,0xc0,0xa1,0xc8,0x8,0xf9,0xf8,0xf1,0x4,0xe6,0xc0,0xf8,0xaf,0xf5,0x10,0x2f,0xd4,0x14,0x1d,0xe2,0x1d,0xf9,0x10,0xf8,0xf6,0xf2,0xfe,0xfc,0xf7,0xe8,0xf6,0x4,0xfc,0xfa,0xce,0xf4,0xce,0x2f,0xbd,0xf2,0xfb,0xe,0x94,0xfc,0xec,0x7,0xfe,0xb,0xf5,0xff,0x7,0x21,0x6,0x3,0xf,0x6,0x13,0xed,0xa8,0x4,0x11,0xff,0x14,0xf6,0xf7,0x27,0x18,0x11,0x24,0xb4,0xc,0x8,0xb,0xf4,0xd,0x8,0xe,0x0,0x2,0xe3,0xf3,0xf3,0xdb,0xea,0xfb,0x5,0xd6,0xff,0xf6,0xfc,0x25,0xff,0x0,0xf4,0xc4,0xc7,0x1,0x16,0xdf,0xed,0x98,0xc,0xfa,0xf6,0xf7,0xec,0xf5,0xfd,0xf4,0xf7,0xe3,0xb4,0xf0,0xfd,0xf1,0x81,0xe2,0xbc,0x27,0xfe,0xe0,0xf1,0x20,0xfa,0xdb,0xf4,0xfd,0x12,0xfc,0xe3,0xa1,0xc,0xb3,0xdf,0xa3,0xfa,0xe9,0x15,0x36,0xf0,0x21,0x12,0xd8,0x1a,0x22,0xfa,0xc7,0x17,0xf8,0x15,0xd1,0x3,0xfe,0x8,0xd8,0x4,0x19,0x4,0x3,0xa,0xb,0x17,0xd0,0x0,0xf6,0xc0,0xff,0xf8,0x9,0xf4,0xfb,0xf,0x1e,0x8,0xf6,0xd5,0xdc,0x16,0xf0,0x31,0xb6,0xda,0x3,0x1,0xc5,0x1b,0xa8,0xf2,0x2b,0x3,0xe1,0xeb,0xea,0x1b,0x2,0xf1,0xe3,0xa3,0xee,0xfe,0xed,0x8,0xcb,0x3,0x16,0xf7,0xf3,0xe0,0xe9,0x1d,0x19,0xa8,0xb8,0xb5,0x15,0xfa,0xa,0xcc,0x81,0x8,0xc3,0xfc,0x0,0x93,0xf7,0xe8,0x97,0xa1,0xd2,0xe6,0x6,0x8,0xe7,0x8e,0xe5,0xdc,0x15,0xcb,0xdc,0xf7,0xf3,0x30,0xf4,0xc2,0x1f,0x1b,0x13,0x7,0x8e,0x9e,0xdb,0xea,0xce,0xd6,0xcb,0xa,0xed,0xc4,0x0,0xf7,0x0,0x2b,0x9,0xf8,0xe6,0xec,0x6,0xf2,0x8c,0xe9,0xd5,0xc1,0x22,0xe5,0xba,0xf2,0xfe,0x7,0xd1,0xc,0xce,0xf1,0x3,0xdf,0xce,0xf1,0xf5,0xd3,0xef,0xf7,0xb8,0xdf,0x13,0xc2,0xe3,0x1f,0xed,0xfd,0xf2,0xf7,0xa,0xc9,0x0,0xaf,0xf0,0xf5,0xec,0xf7,0xf4,0x6,0xf,0xd9,0x22,0xe6,0xd2,0xb,0x5,0xd3,0xc9,0x4,0xfa,0xdf,0xd9,0xee,0x15,0x7,0xc5,0xee,0xd5,0xf2,0xf6,0xb4,0xdd,0xd8,0xb8,0xc7,0xc5,0xce,0x3,0xfc,0x8d,0xd0,0xc,0xcb,0xe0,0xda,0xf4,0xb2,0xf4,0x6,0xbf,0xb3,0x15,0xf4,0xb2,0xd3,0xa2,0x81,0xee,0xea,0x90,0x2,0xd2,0xd6,0xf4,0xf4,0x13,0xf0,0xc4,0xf4,0xbe,0xcf,0xc4,0xcf,0xf2,0xf1,0xd9,0xfd,0xaf,0xfc,0xcb,0xb5,0xcc,0xc3,0xdb,0xdd,0xdb,0xb5,0xcd,0xdb,0x37,0xce,0x89,0x3,0xd0,0x5,0xb3,0xf1,0xd3,0x89,0xf,0x8,0xc9,0xea,0xcf,0x18,0x1c,0xe8,0x3,0x3,0xb6,0xe9,0xd9,0x12,0xda,0xa2,0xfe,0xa3,0x5,0x9,0xdf,0xe,0x8d,0xbe,0x12,0x1,0xc8,0x8a,0x15,0xd5,0xe9,0xf2,0x8c,0x2,0xce,0xc,0xa9,0xad,0x8e,0x92,0xdf,0xe9,0xb2,0xa9,0xdc,0xaf,0xa6,0x1,0xbf,0xf9,0xf6,0x96,0xf5,0xf4,0x1f,0xbc,0xfe,0xd3,0x18,0xcd,0xed,0xa,0xd7,0x95,0xec,0xb6,0x9,0xad,0xd7,0x2a,0xf2,0x19,0xd5,0xa1,0xf4,0xa4,0xed,0xbe,0xd,0xd8,0xe5,0xa3,0x4,0xde,0xf9,0xaf,0xe,0xde,0xe3,0x4,0xfc,0xd8,0x81,0x9,0x9,0x1,0x99,0xf0,0xa,0xe7,0xf5,0xc1,0xbe,0xcf,0xc5,0xc0,0xc,0xd7,0x8c,0xa0,0x98,0x9c,0xe3,0xed,0xaf,0xf6,0xe2,0xde,0xf9,0xbf,0xf5,0x4,0xb3,0xff,0x22,0xe5,0xa4,0xe3,0xf8,0x21,0xc3,0xcc,0xf1,0xde,0xdf,0xdd,0x9c,0xaf,0xb0,0xa7,0xc1,0xfd,0xa9,0x17,0x27,0xd8,0x86,0x8f,0xb9,0xda,0x5,0xec,0xac,0x14,0xd2,0xa2,0x1,0xe6,0x9c,0xff,0xe7,0xb,0x1b,0x1f,0xa1,0xd8,0x4,0xfb,0xd5,0xfb,0xd,0xf3,0x2d,0xf9,0xdc,0x9,0xe5,0xf0,0xcf,0x27,0x4,0xa4,0xbf,0xfe,0xe0,0xf8,0xab,0xfa,0x27,0x4,0xff,0xd5,0x19,0xb9,0xe6,0xea,0xfc,0x2,0x9f,0x5,0x29,0x9,0x16,0x4,0x2,0xa,0xc,0xdf,0xe,0xfc,0xe8,0x15,0xca,0x98,0x9,0x6,0xb6,0xf7,0xf6,0xf5,0xf3,0xf3,0xd9,0x13,0xef,0xf,0xdf,0x3,0x81,0xa9,0xb8,0xff,0x9a,0xe6,0xf7,0xf2,0x1c,0xf8,0xe3,0xea,0x12,0xd5,0x9f,0xfb,0xbd,0xe,0x8d,0xf8,0xc4,0x1b,0xbe,0xfe,0x2d,0xfb,0x33,0xef,0xe2,0xa8,0x0,0xe0,0xfb,0x1a,0x0,0xfa,0xf,0xab,0xdc,0xed,0xbc,0xf5,0xd6,0xf1,0xf0,0xf7,0xb5,0xe5,0xa,0xed,0x8,0xb,0xa3,0xcc,0x4,0xfb,0x11,0xf5,0xe9,0x1a,0x10,0xf8,0xbc,0x2,0xf3,0xdf,0xd5,0xf8,0xe4,0x8,0xe9,0xf9,0xf,0xe8,0xd4,0x1e,0xc,0xac,0x14,0x10,0xe,0xa5,0xd2,0xf6,0xf1,0xfd,0x6,0x3,0xf2,0x13,0x21,0xf5,0x2,0xb,0xfe,0x2d,0x5,0xec,0xfc,0x3,0xf4,0xb,0x18,0xfe,0x3c,0x15,0x30,0xa1,0xfa,0xc9,0x28,0x2,0xeb,0xbf,0x3,0x3,0x3,0xcb,0xf8,0xf8,0x9f,0xfd,0xdf,0xb,0xd5,0xf2,0xd,0x1b,0xd1,0x87,0xc3,0xe6,0xb,0x6,0xbc,0x6,0xe4,0xb,0xee,0xee,0xd9,0x17,0xd,0xdb,0xeb,0xc3,0x21,0xff,0xf6,0xf6,0xa5,0xf9,0xf1,0x9,0xc1,0xd9,0x1,0xd0,0xef,0xd3,0xe1,0xcd,0xf3,0x7,0xa6,0xc7,0x6,0xed,0x8f,0xf0,0xd0,0xc2,0xc4,0xb,0x7,0xe2,0xe1,0xb8,0x3,0xf6,0x8,0xe9,0x81,0xf9,0xac,0xf9,0xc9,0x96,0xed,0x16,0xfc,0x8c,0xe6,0xde,0xe8,0xf6,0x11,0xd9,0x8f,0x1,0x9d,0xf4,0xcc,0xf6,0xa,0xb6,0xfd,0xe3,0x2,0xf2,0xd4,0x8,0xbf,0xf8,0xea,0xdc,0x3,0xe9,0xe7,0x11,0xf9,0xbd,0x28,0xc2,0x34,0x2c,0xd6,0xfc,0x33,0xf7,0xf4,0xd,0x93,0x19,0xed,0x18,0xec,0x16,0x15,0xb3,0xf0,0x5,0x10,0xa,0x17,0xcd,0xeb,0x9,0xd9,0xf2,0xed,0xf3,0xdc,0x24,0x38,0xf7,0xc2,0xa3,0x34,0xf8,0x17,0xdc,0xf6,0xf2,0xe8,0xe8,0xd7,0xe4,0xf5,0xd4,0x81,0xf9,0xb9,0xd1,0xb6,0xf9,0xc4,0x29,0xea,0xfd,0xef,0xfe,0xfd,0xd0,0x10,0x82,0xec,0xe7,0xec,0xf,0xcd,0x10,0xf3,0xfa,0x3f,0x0,0x57,0xfb,0xf5,0xbc,0x1a,0xd,0xcc,0xf0,0xfb,0xec,0x1f,0x10,0xf0,0xcc,0x4b,0xfe,0x2c,0xda,0x2a,0xec,0xeb,0x12,0xf9,0x26,0x9f,0xbf,0xcc,0xee,0xed,0xe5,0xb4,0xf1,0x25,0x1,0x13,0x25,0x6,0xbd,0x0,0x13,0xf0,0x6,0x88,0x5,0xef,0xb,0x27,0x1,0xfd,0x1,0xfc,0xe2,0xa,0xb6,0xf0,0xd6,0x19,0x1,0xc8,0xfc,0xa,0xa,0x2,0xfe,0xc0,0x9,0x1a,0xb4,0x4,0xc,0xdc,0xf3,0xd4,0xc1,0x35,0xae,0xd2,0xb1,0xd7,0xe3,0x97,0x88,0xa1,0xc3,0xeb,0xa6,0xa3,0x12,0x8a,0x0,0x8,0x94,0x3,0xe1,0xb7,0x91,0x2,0x99,0xe9,0x4,0xf4,0xe,0x1b,0xd7,0xb3,0xd7,0xca,0xa4,0xab,0x5,0x87,0x6,0xba,0x11,0x12,0xb5,0x9a,0xcc,0x7,0xfd,0xe8,0xac,0xbe,0xa6,0x19,0xe5,0x26,0xc9,0x81,0x13,0xfb,0xb7,0xe,0x15,0xa2,0xfa,0xf5,0x88,0xa0,0xd7,0xb8,0xbc,0x3,0xe0,0x1d,0xdf,0xaa,0x9d,0x92,0xcb,0x9a,0xd6,0x9f,0xec,0xf4,0xc,0xe7,0xd,0xb,0xc3,0xbe,0xc,0xb7,0xc3,0x10,0x7,0x18,0xca,0xe7,0xd8,0xa,0x27,0xd5,0xe8,0xfe,0xec,0x9e,0xa5,0xc6,0xf0,0xf,0xcb,0x11,0xd8,0xdf,0xc1,0x42,0xb,0xa8,0xe5,0xe1,0xbd,0xbc,0xe4,0xd,0xb1,0xc9,0x1f,0xb1,0x8d,0xbf,0xe3,0x27,0xc9,0xd6,0xe5,0xa,0x92,0xc1,0x0,0xb6,0xfc,0x8f,0x8e,0xfb,0xfb,0xf9,0x20,0xd6,0x81,0x97,0x13,0xb7,0xb0,0xcd,0xb6,0xf,0xf,0xd6,0x12,0xf6,0xfe,0xca,0x10,0x16,0xfc,0xe1,0xeb,0xf0,0xf7,0xfd,0x2,0xc4,0x91,0xaa,0xda,0xe5,0x9e,0xb6,0xe7,0xad,0xe8,0xa0,0xe3,0x8f,0xc9,0xd9,0xd5,0x98,0xfb,0x8,0xb1,0x1a,0xc0,0xee,0xcf,0xba,0xe1,0xf9,0xb3,0xac,0xf0,0xdb,0xc8,0xb5,0x8d,0xf2,0xe7,0x8f,0xaa,0xe7,0x18,0xad,0xb0,0xa,0x15,0xea,0x7,0x14,0x89,0x9,0xd7,0x9c,0x17,0x16,0x96,0x8,0xaa,0xa0,0x9f,0xd8,0xb1,0xd3,0xdc,0xd4,0xc8,0xc4,0xd5,0x96,0xb9,0xf9,0xd1,0x92,0xff,0xfc,0x9b,0xfd,0xcf,0x5,0x9b,0xff,0x2,0xff,0xfd,0x2b,0xe1,0xf6,0xfd,0xd1,0xf1,0xb1,0x1f,0x30,0xc6,0xf3,0xf0,0xab,0xa1,0x17,0xc3,0xd7,0xf5,0xec,0xb3,0xe9,0xee,0x18,0xea,0x1b,0xa9,0x99,0xf7,0xf7,0xd,0xd,0xf1,0x1,0xf5,0xff,0x18,0xe5,0xed,0x1,0xff,0xf8,0xf9,0xe8,0xfb,0x7,0xf2,0xfc,0x13,0xfc,0xf8,0xec,0x1e,0xf6,0xe4,0x15,0xff,0xda,0xf2,0xed,0xff,0xf8,0xf6,0x3,0x10,0x2,0xca,0x7,0x3,0xfb,0x5,0xda,0xef,0xe,0x7,0x16,0xfe,0xd9,0xff,0xff,0xcb,0xfd,0xff,0xb,0xe,0xf8,0xf4,0x21,0xfd,0xfc,0xe4,0x19,0xf7,0xf7,0xf7,0xdb,0xd,0x5,0xbd,0xe3,0x10,0x8,0xbc,0x8,0xfe,0xc6,0xff,0xeb,0xfd,0x13,0xf1,0xf8,0x9,0x2,0xb1,0xb,0x17,0x16,0xdc,0xdb,0xf5,0xf,0x4,0xfb,0x2,0xf2,0xa,0x2,0xe6,0xfb,0xf8,0x9,0xe7,0xec,0xe,0x28,0x0,0xa,0xdf,0xe9,0xfd,0xde,0xf6,0xd1,0xf6,0xe8,0xd9,0xca,0x14,0xec,0xf5,0x14,0xfa,0xdc,0xf7,0xe3,0xf4,0xf8,0xfc,0xe7,0xff,0xfc,0x81,0xef,0x17,0xf6,0xde,0xee,0xf4,0xfe,0x8,0xf9,0x1,0xf9,0x9,0x12,0xed,0xaa,0xdc,0xd7,0xce,0xd9,0xc3,0xe9,0xc,0xc2,0x4,0xf5,0xe7,0x5,0xeb,0x25,0xc5,0x18,0xd9,0xdc,0xdd,0xbf,0x23,0x9,0x5c,0xc4,0xf1,0xee,0xed,0xd6,0xe,0xf5,0x6,0xd,0xd7,0xe4,0x2,0xc6,0x9d,0xf5,0x3e,0xe1,0x6,0xa,0x3,0xe0,0xd9,0xe0,0xe7,0xf0,0xc9,0xcc,0xe3,0xcb,0xb4,0xd5,0xe4,0xe3,0xcb,0xbd,0xcc,0xff,0xe8,0x2,0xd7,0xe3,0xdd,0xce,0xc7,0x98,0xf7,0xda,0xe5,0xe8,0xd1,0xac,0x6,0xf5,0xea,0xe3,0xe1,0xfd,0xec,0x5,0xcc,0xe6,0xc2,0xf1,0x1d,0xe7,0xf9,0x1a,0x2,0xe6,0x9,0xcc,0xc9,0xfb,0x3,0x12,0x1,0x81,0xe9,0xc8,0x11,0xbd,0xd9,0xa1,0xfa,0xd5,0xc4,0xa9,0xfb,0xd6,0xbd,0xf7,0xe0,0x85,0xc,0x27,0x24,0xaa,0xbc,0xdc,0x3,0xca,0xa4,0xa5,0xc7,0x92,0xc4,0xc5,0x1,0xbf,0x40,0xd9,0xda,0xc6,0xb1,0xd9,0x4,0xcc,0xb9,0xc1,0xf6,0xf3,0x1d,0xec,0x2,0xd,0xe7,0xce,0xfb,0xfa,0x1b,0x8,0xf4,0xf8,0xe7,0x0,0x23,0xc,0xf1,0xdf,0x9,0xfd,0xfb,0xad,0xff,0x0,0xc,0x1f,0xb,0x5,0xf,0xf6,0xef,0xed,0xe4,0xf5,0xf8,0xf8,0x22,0xc0,0xfe,0xfa,0xf6,0xf3,0xf9,0xfe,0x12,0x2a,0xf0,0x1,0x18,0xf0,0xed,0xdc,0xb0,0xfa,0xf8,0xe7,0xe9,0xec,0xfc,0x11,0xfb,0xf7,0x1,0x1b,0xb,0xb6,0xf9,0xdf,0xdc,0xf4,0xfa,0xff,0x0,0xd4,0xf8,0xf1,0xfc,0x14,0xef,0xc,0x1d,0x81,0xe8,0x0,0x3,0xe4,0x3,0xce,0xf2,0xfc,0xff,0xf,0xed,0xcb,0xc4,0x5,0xe9,0xaf,0x4,0xcc,0xb4,0x1,0x4,0xab,0xd5,0x11,0xea,0xb,0xf8,0xd9,0xbc,0x14,0x4,0xa7,0xdd,0xc6,0xcf,0xfb,0x2,0xa1,0x17,0xc,0xee,0x1b,0xcd,0xc7,0xdb,0xf0,0x2a,0xcf,0x4,0xe4,0xed,0xcc,0x4,0xd3,0xda,0xc1,0xf5,0xf3,0xde,0x7,0xed,0xda,0x15,0xf5,0xc,0x6,0xc4,0xf0,0xfe,0xe0,0x18,0xc3,0xfa,0x1e,0xfe,0xd7,0xf9,0xf1,0xf1,0x15,0xed,0x8,0xfe,0xf2,0x0,0xea,0x5,0xc8,0x0,0xde,0x0,0xe6,0x26,0xff,0xd,0x1,0x5,0xe,0x17,0xd,0xff,0xfe,0xa,0xb,0x6,0x7,0x0,0x28,0xc2,0xf4,0xec,0xc5,0xf7,0xfc,0xd,0xf4,0x6,0xf4,0xca,0xe8,0xf0,0x20,0xf6,0xf3,0xc1,0x4,0x0,0x9f,0xd,0xdf,0x1,0xe2,0xff,0xaf,0xd7,0xf1,0xef,0xc,0xf8,0xd4,0x13,0xf8,0x24,0xd,0xfb,0xf0,0xea,0xf,0xfa,0xed,0xf0,0x1,0x6,0x0,0xf9,0xc4,0x21,0x8,0x7,0x11,0xd4,0x5,0x13,0xe2,0xa,0xf5,0xf2,0xc,0xff,0x4,0xf8,0x6,0xe5,0xc,0xfb,0xa1,0x8c,0xdb,0xfc,0xf4,0xc,0xf0,0x13,0x1d,0xee,0xf3,0x0,0xf3,0xb4,0x1a,0xd6,0xd2,0x81,0xe6,0xa,0xf8,0x12,0xd6,0xd3,0x2b,0xe6,0xf1,0xf4,0xe5,0xf4,0xfd,0xf6,0x2,0xe4,0x2a,0xa7,0x1b,0xe5,0x13,0xf0,0xae,0x0,0xae,0xfb,0xb3,0xfc,0xb0,0xe3,0xe8,0xeb,0xba,0x9d,0xfb,0xca,0xa8,0xba,0xfb,0xe7,0xcd,0xb0,0xc7,0xcb,0xcc,0xf4,0x99,0xe4,0xa8,0xba,0xf4,0xf3,0xe2,0xe3,0x6,0xd5,0xcb,0xf2,0x21,0xb4,0x4d,0xce,0xea,0xf5,0xd,0xcb,0x12,0xfd,0x34,0xd7,0xf3,0xee,0xcb,0xdb,0x6,0xec,0xfd,0xae,0xbd,0xe0,0x13,0xf8,0x9d,0x40,0xf1,0xfa,0x1f,0x2,0xb3,0xfd,0xf2,0xf1,0xca,0xaa,0xca,0xed,0xa,0xed,0xa7,0xc2,0x2,0xf0,0xd,0xeb,0xc4,0xdb,0xcd,0x3,0xeb,0xbd,0xe6,0xeb,0xca,0xb2,0xb6,0xa2,0xff,0xe5,0x81,0xdd,0x12,0xf1,0x13,0xce,0x1f,0xe1,0xdd,0xd4,0x8,0xaf,0xfa,0xe3,0xd2,0xd5,0xe5,0xd9,0xf5,0xdf,0xc6,0xca,0xd2,0xcc,0xf8,0xe5,0xa4,0xca,0xde,0xed,0xfe,0xc1,0xda,0xee,0xa9,0xb7,0xae,0x1e,0xf5,0xe6,0xde,0x1b,0x4,0xf6,0xd7,0xf9,0x33,0xf5,0xe,0x15,0xd8,0x10,0xec,0xea,0xfe,0xf8,0xfb,0xb0,0x3,0x36,0xd7,0x9,0xf,0x0,0x9,0xf5,0xe3,0xf9,0xc4,0xeb,0xee,0xd4,0xd9,0x5,0xe0,0x29,0xfe,0xc,0xda,0xe3,0xf,0xec,0xc,0xf3,0xce,0x14,0xe1,0x1a,0x9b,0xfe,0xd,0x22,0xeb,0xe9,0x14,0xd,0xdb,0x13,0x14,0xe9,0xd5,0xff,0xc,0xa,0xa5,0xd3,0xff,0xf3,0xee,0x0,0xf3,0x17,0x1,0xfd,0x3a,0xf0,0x8,0xfa,0x7,0xe9,0xc1,0xc9,0xfb,0xee,0xd3,0x2,0xe1,0xd,0x21,0xf8,0x5,0xc,0xd1,0x81,0x12,0x29,0x20,0xe5,0xbf,0xed,0x21,0x11,0x24,0xd8,0x96,0xa,0xf8,0xf9,0xf2,0x13,0x9,0xf8,0xc9,0xdd,0xcc,0xc2,0xf7,0xf6,0xf9,0xf5,0xf0,0xf7,0x5,0xe7,0x2b,0x22,0xfe,0xe0,0x4,0x31,0x9,0xd7,0xe0,0xfa,0x2b,0xfd,0x13,0xfe,0xe7,0xec,0x0,0xf5,0xee,0x2c,0xfe,0xcc,0xb,0xea,0x19,0xfa,0x8,0xe5,0xf1,0x2,0xfa,0xf6,0xda,0xef,0x15,0x5,0xd,0xe3,0x1b,0xcb,0x11,0xff,0x18,0xf2,0x21,0x5,0x8,0xfc,0x18,0xff,0xe5,0x2c,0x18,0x23,0xec,0xbd,0x22,0xef,0x1a,0xfc,0xd4,0x10,0xf0,0xff,0x1,0xb0,0xe,0xf2,0xc6,0xc3,0xfc,0x6,0x10,0x5,0xb0,0xe9,0xf1,0xec,0xa,0xe,0x20,0xed,0xee,0xfc,0xe9,0xda,0x1e,0xf5,0xdf,0xfc,0xf7,0xf5,0xfc,0xf8,0x4,0xf7,0xa,0xca,0xe0,0xde,0x10,0xa0,0xdd,0xb5,0x7,0x1,0xc6,0xea,0xfd,0x4,0xc8,0xf4,0xf2,0xb7,0x8,0xe7,0xe3,0x9f,0xdd,0x6,0xe5,0x2,0xfb,0x0,0xf5,0xf6,0xb2,0xfe,0xff,0xd4,0xb,0xac,0xa2,0xc3,0xcc,0xda,0xc,0xb,0xce,0x4,0x3,0xf1,0xe6,0x1a,0xce,0xc0,0xec,0xc9,0x9a,0xce,0xc3,0x88,0xef,0xe,0x81,0xe6,0xf6,0xf2,0xd2,0xf2,0xc,0xb7,0x2,0xb,0xe9,0xe7,0xe,0x1e,0xd7,0x10,0xb3,0xe8,0x2a,0xf1,0xa,0xe5,0x9f,0xa8,0x1,0xe4,0x93,0xe,0xe,0xfe,0xe9,0x9,0x81,0xb7,0xc,0xef,0x5,0xe3,0x95,0x19,0xe2,0x13,0xc4,0x1e,0xd6,0xb6,0xf8,0xf9,0xc6,0xa,0x30,0xec,0xb,0xf2,0xf1,0xef,0x3,0x17,0xfb,0xe9,0x7,0xfb,0xd7,0x9,0x17,0x17,0xfe,0xfd,0xf8,0x0,0xf9,0xdf,0xd,0xc0,0xfb,0xc5,0x17,0x5,0xf2,0x4,0x6,0x9,0x11,0x0,0xd9,0xfc,0x11,0xae,0xa,0xd7,0xe,0xf5,0x2,0xeb,0xf7,0x1,0xf4,0xc7,0x1c,0x9,0xe8,0xef,0xdf,0x21,0xfa,0xe0,0x19,0x16,0xb4,0xe8,0x9f,0xa,0xf,0xff,0xb6,0x5,0xeb,0x2,0xf,0x1a,0x8,0xbd,0xb,0x41,0xdd,0x7,0xba,0xfc,0x19,0x1c,0x11,0xfd,0x9,0x10,0x26,0xd1,0x15,0xae,0x5,0x2,0xee,0x1e,0xb3,0x6,0xfb,0x11,0x2b,0xfe,0x9f,0x8,0xe2,0x1e,0xf7,0x81,0xc8,0xfa,0xf4,0xc8,0xf5,0xf8,0xe1,0xe3,0xcc,0xef,0xb0,0xea,0x5,0x3,0x4,0xcf,0xf6,0xe6,0xea,0xdd,0xf2,0xb,0xf7,0x7,0x29,0xff,0x3e,0xfd,0x13,0xbe,0x25,0xba,0x14,0xdf,0xab,0x11,0xbd,0x8,0xa,0xef,0x1f,0xf9,0xf4,0xfe,0xe2,0x18,0xff,0xa6,0xff,0x15,0x10,0xd5,0xfa,0xfc,0x8,0xf7,0xfe,0xfd,0xc2,0xf4,0xfe,0xc,0xd,0xf3,0xf9,0xef,0xf4,0xea,0xe0,0x5,0x1,0x6,0x6,0x1,0xd3,0x4,0xf,0xd3,0xf3,0xea,0x36,0xd0,0xf9,0xef,0xfa,0xf7,0xfe,0xc1,0xe4,0x1,0xb3,0xea,0xe0,0xb,0xf5,0xea,0x6,0x10,0x6,0x9b,0xd7,0xf7,0x2,0x16,0xe1,0x8,0xa4,0xfb,0xfa,0xed,0xed,0xf8,0x0,0xb8,0xe6,0x4,0xfd,0xef,0x9,0x2,0xbc,0xff,0xac,0x7,0xfd,0xf2,0x2,0xcb,0xfd,0x1,0x5,0x8,0xf4,0xfe,0xe2,0xe4,0xfe,0xf6,0xcb,0xdd,0xf6,0xa,0x3,0xc,0xc1,0x3d,0xaf,0x20,0xd2,0xa2,0x6,0x15,0xed,0xe7,0xe9,0xda,0x5,0xa0,0xf4,0xee,0xb9,0xf9,0xdd,0xe4,0xdd,0x92,0x33,0xb0,0xd6,0xbe,0xcb,0xf3,0xd4,0xcf,0x3c,0xbc,0xf8,0xa8,0xd4,0xd6,0xc1,0x93,0x5,0xfb,0x1f,0xb0,0x2a,0xb8,0xcc,0xc8,0xec,0x9f,0xab,0xf5,0xf0,0xfd,0x18,0xdc,0xd3,0xda,0xe3,0xd,0xcf,0xd1,0xd0,0xbe,0x15,0xd7,0xde,0xac,0x10,0xc6,0xad,0xd5,0xda,0xde,0xa2,0x24,0xe,0xd,0xf2,0xed,0x4,0xce,0x0,0xac,0xee,0x81,0xc9,0x9a,0xfa,0x19,0xfc,0x20,0xbd,0x0,0xc7,0xe8,0xb6,0x97,0xbf,0xbc,0xa4,0xae,0x1,0xb6,0xfc,0xf6,0xed,0xea,0xba,0x1d,0xb9,0xdd,0xc9,0x12,0x10,0x10,0xf,0xce,0xe8,0xb4,0x7,0xe7,0xa7,0xf,0x5,0xd4,0xb3,0xe7,0xd4,0xd7,0xda,0x1f,0x2,0xe,0xee,0xe9,0xbf,0x24,0xb4,0xbf,0x6,0xb1,0xeb,0xf2,0xe,0x6,0xf4,0xd8,0xea,0xd5,0xe1,0xed,0xec,0x0,0xe5,0xec,0x7,0xf6,0x1,0xdf,0xe5,0xfd,0xdb,0x0,0xe1,0x0,0x1,0x13,0xc4,0xe3,0xcf,0xd7,0xda,0xf2,0xd3,0x1,0x8,0xf8,0x14,0xa,0xdb,0xd6,0xd4,0xfc,0xd4,0x5,0x5,0x0,0xd9,0xee,0xdd,0xd4,0x27,0xe9,0xde,0xc,0xcf,0xec,0x8,0x1c,0x13,0xde,0xf1,0x9,0xd7,0xd1,0xe7,0xe8,0xde,0xca,0xe3,0xea,0xc4,0xf9,0xca,0xf9,0x1,0xf8,0xdb,0x2,0xa,0xfd,0x16,0xdd,0xf1,0xea,0xc8,0xef,0xe1,0xac,0xc2,0xfd,0xbe,0xec,0xf5,0xec,0xe2,0xef,0xf0,0x98,0xc,0xdc,0xd9,0xef,0x1,0xef,0x7,0x1,0x81,0xed,0xe9,0xcc,0xd9,0xcb,0xec,0xcc,0x16,0xc7,0x12,0xde,0x1d,0xe8,0xff,0xdf,0xe9,0xf8,0xed,0x7,0x5,0xa,0xf8,0xd8,0x5,0xef,0xf1,0xc8,0xed,0xbc,0xd2,0xff,0xc8,0xee,0xd0,0xdd,0xcf,0xda,0xfc,0xe9,0xfa,0xef,0xe,0xdd,0x54,0x9f,0x9c,0x45,0x87,0x81,0xe3,0xcb,0xd2,0x1,0xf7,0x92,0x8f,0xd7,0xd,0xc1,0x98,0xcc,0xc7,0xba,0x12,0xa4,0xa8,0xf2,0xa7,0xc1,0x9e,0xd2,0x97,0xa,0xcb,0xcf,0xd1,0xcf,0xca,0xe,0x51,0xaf,0xfb,0x19,0xc5,0xd2,0x6,0x12,0xb0,0xfa,0xcd,0xa6,0xdd,0xc,0x3a,0xcd,0xd8,0x8e,0x38,0x2,0xf2,0x4,0xd5,0xad,0xcc,0xf,0x8b,0x1b,0xd4,0xd4,0x9d,0xef,0x33,0xbf,0xd8,0xf0,0x8,0xcb,0x17,0x4,0xa5,0x19,0xbe,0xcd,0xe1,0xce,0xa,0xb5,0xda,0xf,0xde,0x92,0xd0,0xed,0xca,0xd6,0xb3,0xde,0x11,0xa6,0xa,0xab,0x88,0x43,0x94,0x1a,0xd9,0x8e,0xfe,0xc5,0xc9,0x98,0x35,0xe3,0x9d,0x8e,0xba,0xd9,0xc1,0xc,0xff,0xd,0x95,0xf1,0xaa,0x11,0xda,0x95,0x13,0x9c,0xa8,0x1c,0xe1,0xab,0x9f,0xc3,0x9d,0xe9,0xca,0xc6,0x91,0x99,0xe4,0x33,0xf9,0xa7,0x38,0x11,0xff,0xde,0xf0,0xfa,0x6,0xe7,0x4,0xf,0xad,0xf7,0xf,0xe6,0x1,0xfd,0x2e,0xb9,0xdd,0x24,0x5,0x2,0x2b,0x2,0x14,0x2,0x82,0xf5,0x3,0x4,0xe5,0xf,0x9,0xe1,0xb9,0x18,0x36,0x4,0x30,0xc4,0x11,0xfd,0x81,0xf9,0xf8,0xf2,0x20,0xed,0xcf,0xe,0xeb,0xf6,0xc1,0xf6,0xef,0xf,0xf,0x0,0x6,0x9,0x19,0xea,0xfe,0xda,0xb9,0xbd,0xd,0x21,0xd0,0xfe,0xc8,0x33,0x1c,0x0,0xe9,0x15,0x11,0x13,0xf9,0xec,0xba,0xdf,0x34,0x23,0x96,0x2,0x4,0xeb,0xf8,0xee,0xc6,0xf7,0xd1,0xd6,0xc,0xef,0xbc,0xf4,0xf9,0x25,0xc2,0xf1,0x8,0x11,0xf2,0x1,0x1,0xfa,0xdf,0xe0,0xf6,0x12,0xdc,0xd0,0xfb,0xfd,0x12,0xf1,0x1f,0x0,0x3,0xc,0xff,0x1,0x2,0x9,0xea,0x1b,0x13,0x9,0x5,0xe2,0x10,0xf6,0xdd,0x17,0xf8,0x3,0xe0,0xea,0x26,0x81,0xd2,0xe1,0x1,0xbe,0x32,0xe4,0x0,0xf5,0x87,0x93,0xaf,0xe8,0xfe,0xe5,0xd2,0x83,0x2,0xed,0xc4,0xee,0xe1,0xed,0x5,0x9,0x93,0xc2,0xe6,0xf1,0x2,0xf9,0xcf,0xd9,0xf1,0x3,0xd4,0x9,0x99,0xf0,0x21,0xfe,0xc1,0xe1,0xfd,0xf5,0x8,0xd,0xf4,0xf9,0xfe,0xbc,0xd5,0xe,0xf,0xf7,0xd4,0xfa,0xfe,0xe8,0xd5,0x0,0xd2,0xf1,0xff,0xfc,0xed,0xed,0xcd,0xe8,0x11,0xc,0xe1,0x1,0xd4,0x8,0xf4,0xfe,0xec,0x7,0xe2,0xcc,0xf8,0xd1,0x95,0xb9,0xdd,0x1e,0x10,0xa,0xad,0xfa,0xd,0xf4,0xe6,0xfe,0xff,0x2a,0xfd,0xf6,0x4,0xfb,0x11,0x12,0xce,0xfa,0x1d,0x9,0x10,0x9,0xde,0xf8,0xe2,0xd,0xfb,0x9,0xaf,0x20,0x3,0xfe,0x0,0x1,0xea,0x14,0x22,0x5,0x1a,0x1,0xf8,0x2,0x6,0xa,0xf2,0x17,0x19,0x2d,0xde,0x1,0x2,0x15,0x2,0x2,0x13,0x2,0xe9,0xb6,0xf3,0xe8,0xef,0xc2,0x1b,0x29,0xbf,0x27,0xe6,0xbd,0xc4,0xd0,0xc3,0xa,0xb8,0xc7,0x25,0x14,0x7,0xf0,0xc,0x11,0x93,0xd1,0xd3,0xda,0x5,0xe9,0xee,0xee,0xb8,0xb1,0xb,0xfb,0xce,0xfe,0x13,0xd4,0xc4,0xf0,0xb8,0xad,0xe5,0xc4,0xe5,0xe9,0x96,0xbf,0xac,0x0,0xc4,0xda,0xd5,0x89,0x35,0x81,0xd0,0xe6,0xca,0xf7,0xcf,0xd2,0xde,0xeb,0x3,0xf9,0xc0,0xf0,0xc6,0x9,0x27,0xcf,0xc1,0xc4,0xf0,0xec,0xe7,0x11,0xe9,0xcf,0x29,0xf3,0xed,0xe4,0xe4,0xd5,0x4,0x26,0xee,0xca,0x24,0xee,0xcc,0xe4,0xba,0xfc,0x29,0xfa,0xc3,0xe7,0xc,0xf5,0xbe,0x52,0xd0,0xd3,0x26,0x1,0xd4,0xd7,0xda,0xf6,0xda,0xc5,0xdf,0xe4,0xc3,0xb7,0xdd,0x1b,0xb3,0xf7,0xd5,0xdb,0xc7,0x8,0x2,0xcc,0x31,0xc3,0xf7,0xe1,0xc8,0xd5,0xe0,0xe3,0xc,0xd5,0xe4,0xf3,0xbc,0xf5,0xf6,0xd6,0x9,0xf9,0x13,0xc9,0xe,0x13,0xde,0xf,0xc,0xe5,0xf6,0x2,0xb8,0xfd,0xf6,0x9e,0xf0,0xf8,0x6,0xa9,0x0,0x1,0xec,0xf8,0xf7,0xbe,0xf7,0xfb,0xad,0x3,0xe4,0xd6,0xfb,0xce,0xcc,0x31,0xd7,0x12,0xeb,0x5,0x81,0xde,0xfb,0xf2,0xcd,0xf3,0xff,0xf9,0x6,0xa,0xe6,0x42,0x23,0x19,0x17,0x6,0xdf,0x10,0x8,0x3,0x8,0xfc,0xfb,0x4,0xef,0xfa,0xff,0x1,0xfa,0xfc,0x7,0xfb,0xff,0x8,0x22,0xff,0xf7,0x5,0xef,0x23,0xa,0x9d,0xff,0xc9,0xfb,0x4,0xcf,0xf6,0xa3,0x16,0xf5,0xf6,0xd4,0xfc,0xe0,0xdb,0xd2,0x1f,0x16,0x10,0xe4,0xeb,0x3a,0xe5,0xd5,0x9,0xe0,0xfc,0x3a,0xf9,0xd,0xda,0xef,0x2a,0x10,0x7,0xc1,0xa6,0x27,0xf3,0xc6,0xed,0xe3,0xf9,0xff,0xf0,0xfc,0xf9,0xfe,0xb7,0xef,0x1,0xae,0x8e,0xc7,0xf9,0xe2,0x20,0xd5,0xf7,0xa5,0xf8,0x22,0xb1,0xf4,0x0,0xf,0xd,0xd2,0x5,0x48,0xff,0xf6,0x3,0xee,0xfa,0xf9,0xfb,0xeb,0xe5,0xfd,0xbb,0xe2,0xf4,0xcf,0x2,0x1,0xf3,0xc0,0xe0,0xed,0xf1,0xe3,0xf9,0xa,0xdf,0xf8,0xc9,0xcc,0xbb,0xd8,0xf5,0xe3,0xff,0xec,0xd1,0xd,0xf3,0xb8,0xfa,0x2a,0xd8,0xf4,0xd8,0xa4,0xdc,0xdc,0xb1,0xd3,0x5,0xd6,0xe5,0xeb,0xf0,0xe1,0xfa,0xdd,0xe5,0xe6,0xe0,0xce,0xf3,0xca,0xe3,0xd6,0xf4,0xf6,0xe9,0xf0,0xf6,0xc,0xf6,0xd5,0xbb,0xfb,0x0,0xfe,0xda,0xb4,0xeb,0xe,0xf4,0xe2,0xd9,0xf0,0xf9,0xfa,0x1,0xd2,0xdc,0xfd,0xf2,0x81,0xdb,0xe8,0xc4,0xde,0xf8,0xc2,0xdb,0xf7,0xf3,0xf,0xf7,0xd4,0xe8,0xef,0xba,0xde,0xdd,0xd7,0xee,0xe4,0xf5,0xdd,0xe6,0xad,0x0,0xb,0xfd,0xde,0xad,0xfb,0xce,0xda,0xe,0xf6,0xf9,0xd6,0xf4,0xd7,0xd0,0xee,0xfe,0x18,0xf4,0xd9,0xfb,0x1d,0xf0,0x1d,0x24,0xe8,0xda,0xf8,0x3,0xb,0x14,0x23,0x5,0x7,0x2,0x13,0xef,0xe,0xff,0x7,0x41,0xe5,0xe3,0xfe,0xfd,0xff,0x6,0x16,0x7,0x26,0x1,0x5,0x86,0xf8,0xe4,0x2f,0xe6,0x9a,0xc6,0x0,0xff,0x1,0xcc,0xeb,0xfe,0xc5,0xf6,0x0,0xd8,0xec,0x21,0xf,0xe5,0xd9,0xd8,0x16,0xfb,0xfe,0xea,0xe4,0x5,0x17,0xfe,0xdb,0xeb,0x5,0xd,0xa,0xd3,0xda,0xf7,0x14,0x0,0xe4,0xd3,0xcc,0x2,0xe9,0xf5,0xfe,0xe5,0xf9,0xd3,0x1e,0xcf,0xfe,0xf2,0xa,0xfe,0xfb,0xd2,0xdb,0xf6,0x81,0xe3,0xe4,0xe0,0xe0,0x11,0xd1,0xbe,0x35,0xee,0x3,0xfd,0xdb,0xd3,0xee,0xf8,0xf3,0xf5,0xcb,0xe8,0x6,0xcd,0xeb,0xca,0x6,0xf1,0x7,0x2,0xde,0xe7,0xfb,0xf6,0xd0,0xef,0xf3,0x6,0xef,0x0,0xa2,0xf6,0xfd,0xf9,0xd7,0x5,0xd6,0x9,0xf7,0xf4,0xf,0xfd,0xc5,0xd3,0xfb,0xc9,0x5,0xf8,0xe8,0xef,0xe1,0x3,0xfe,0xa,0xfa,0x1,0xbc,0xff,0xfd,0xfb,0xeb,0xd4,0x17,0xf9,0xf1,0xee,0xea,0x1,0xd0,0xd5,0xb9,0x3,0x81,0xe4,0xec,0x4,0x8,0xbe,0xdf,0xe3,0x6,0xe7,0xfa,0x0,0xf2,0xf7,0xf8,0xfe,0xb5,0xec,0xd9,0xbd,0xff,0xec,0x2,0x3,0xe0,0xb4,0x5,0x4,0xfc,0xe0,0xf7,0xff,0xc4,0xf4,0xd2,0x6,0x3,0xb0,0xdb,0x1a,0xf8,0xec,0xe2,0xfe,0xc5,0xfd,0xfb,0xfb,0xe1,0xe6,0xfb,0x1b,0x0,0xf0,0xfe,0xf9,0xc,0x6,0xcd,0xf7,0xef,0x7,0x19,0xfe,0x9a,0xf7,0xf9,0xf4,0xef,0xc4,0x5,0x5,0xee,0xf0,0xf3,0x0,0xff,0xc2,0xf8,0xfb,0xaf,0xe6,0xf8,0xe,0xe9,0x9d,0xfe,0xee,0xfb,0xf7,0xdb,0xfc,0xe,0x4,0xe6,0xf1,0xce,0xfa,0xf8,0xd,0xff,0xee,0x1a,0xf8,0x3,0xf6,0xfa,0xf2,0xf,0x0,0x4,0xe,0xc4,0x1,0xfd,0x8,0xe5,0xe6,0xd9,0x1a,0x1,0x13,0xbf,0xfe,0xd7,0x15,0x5,0xf2,0x35,0xf5,0x2,0x7,0x4,0xa4,0xea,0x10,0xec,0xf1,0xac,0x3,0xe7,0x1a,0xff,0xf6,0xe0,0x5,0x27,0x1b,0xfc,0xda,0xf8,0xd6,0x6,0x14,0xf3,0xf8,0x2,0xf3,0xf9,0x2,0xcb,0xd,0xf2,0x10,0xea,0xde,0xbe,0xe8,0x31,0xd2,0xc6,0xf2,0xef,0xf6,0xbc,0x4,0x11,0xfa,0xe7,0xa,0xe5,0xd7,0x84,0xb9,0x3,0xf7,0xe0,0xe9,0xf4,0x1,0x9a,0x1,0xb1,0x4,0xf6,0xea,0xe6,0xa7,0xd8,0xe2,0x11,0x3,0xd2,0xfd,0x24,0xf8,0xd,0x3,0xd4,0x14,0xf,0xe,0x18,0x29,0x13,0x12,0x14,0x81,0x28,0xef,0x4b,0xe3,0xd5,0x8,0xa,0xfb,0xfc,0xf5,0xdf,0xd6,0xc2,0xd,0xd7,0xfd,0xf3,0xf3,0xf2,0x6,0x87,0x5,0xfd,0xfc,0xfd,0xed,0xee,0xcc,0xcf,0xfb,0xd0,0xf8,0xac,0xf0,0xdb,0x8,0x7,0xf1,0xe4,0x10,0x15,0xe3,0x21,0xe9,0xde,0xec,0xc,0x0,0xe1,0x8,0xf5,0x39,0x30,0x3,0x3,0x6,0xfb,0xbb,0x11,0xec,0xd6,0xd4,0x11,0xdb,0xf4,0x1,0xbd,0xf8,0x4b,0xf8,0xf,0xf6,0x2c,0xc3,0x2c,0xba,0x17,0xf8,0xf9,0xbe,0x21,0x6,0xae,0xa6,0xfc,0xf4,0xa4,0xf1,0xa9,0x14,0x1c,0xbc,0x3,0xf2,0x0,0x18,0xe9,0x0,0xfd,0xe,0x1a,0x12,0x1f,0x0,0x25,0x8e,0xfe,0xb9,0xff,0xfb,0xd0,0xba,0xe7,0x8,0xec,0xce,0xe0,0xf8,0xfd,0xe7,0xf9,0x1c,0xfe,0xdb,0x2e,0x1,0x16,0xe9,0x0,0xf9,0x4,0xde,0xb0,0xe6,0xe8,0xf6,0xe3,0x1a,0x7,0xf1,0x25,0xf4,0x36,0xf9,0xee,0xff,0x2d,0xc,0xfa,0x11,0xab,0x11,0xf5,0xab,0xe9,0xe8,0x10,0xee,0xa1,0xe3,0x21,0xf7,0xef,0xd0,0xdd,0xf0,0xbe,0xfe,0xc5,0x17,0xf1,0x81,0xd2,0x39,0xa7,0xbf,0xf1,0xf7,0xea,0xf3,0x8e,0xf3,0xc6,0xf0,0x7,0x0,0x0,0x0,0x0,0x86,0x33,0xff,0xff,0x4,0x0,0x0,0x0,0x80,0x0,0x0,0x0,0x30,0xec,0xff,0xff,0xc9,0xf8,0xff,0xff,0x85,0xe6,0xff,0xff,0xea,0xf5,0xff,0xff,0xfa,0xb4,0xff,0xff,0x96,0xc9,0xff,0xff,0x7a,0xef,0xff,0xff,0x4c,0xfb,0xff,0xff,0x86,0xf2,0xff,0xff,0x69,0xc9,0xff,0xff,0x10,0xca,0xff,0xff,0x29,0xfe,0xff,0xff,0x1c,0xa2,0xff,0xff,0x6e,0xef,0xff,0xff,0xb3,0xfa,0xff,0xff,0x4a,0xaf,0xff,0xff,0x3,0xe0,0xff,0xff,0x8a,0x3,0x0,0x0,0x13,0xef,0xff,0xff,0x49,0xfb,0xff,0xff,0xab,0xcc,0xff,0xff,0x42,0xa1,0xff,0xff,0x75,0xc8,0xff,0xff,0xae,0xd5,0xff,0xff,0x39,0xfc,0xff,0xff,0xc8,0xce,0xff,0xff,0x21,0xf0,0xff,0xff,0x88,0xcb,0xff,0xff,0xa3,0xf7,0xff,0xff,0x1,0x0,0x0,0x0,0x9d,0xfb,0xff,0xff,0x13,0x1,0x0,0x0,0x0,0x0,0x0,0x0,0x16,0x34,0xff,0xff,0x4,0x0,0x0,0x0,0x0,0xc8,0x0,0x0,0x19,0x19,0x20,0x1,0xff,0x5,0x16,0xff,0xc,0xff,0x1,0x2b,0xe,0xe4,0xf6,0xff,0x7,0xf,0xb,0x19,0x2,0x3,0x1,0xec,0xe1,0xfe,0xef,0x1,0x0,0x7,0x6,0x5,0xe7,0x16,0x40,0xb,0x0,0x2,0xf7,0x6,0x33,0xff,0x3,0x15,0x6,0x9,0x1a,0x1,0x6,0x10,0x3,0x53,0xfd,0x4,0x0,0xd7,0xc2,0x1,0xe,0x1b,0xdb,0xf0,0xf3,0x1b,0xf9,0xc,0x4,0xe2,0x8,0x0,0x20,0x23,0x12,0x0,0x1,0x18,0xfd,0x20,0xee,0x0,0xf5,0x12,0x4,0xb,0x0,0x5,0x4,0xbd,0xcf,0xff,0xd5,0x5,0xe,0xd,0xe6,0x32,0x36,0xf3,0x2,0xf8,0x1,0x0,0x1d,0xd,0x14,0x3,0x5,0x23,0x6,0xa,0xf4,0x2,0xff,0x22,0x0,0x1,0xff,0x3,0x1,0xe0,0xdf,0x1,0xee,0x7,0x9,0x7,0xd4,0xb,0xe2,0x9,0x14,0x5,0x5,0xfd,0x1,0x38,0xfc,0x2,0x0,0xe7,0x2,0xf6,0xd1,0x4,0x1,0x12,0xfb,0xc,0xfc,0x0,0x1,0xf2,0xe1,0x2,0xf5,0x5,0x2e,0x44,0xe6,0xfd,0x4,0xcd,0x2,0x5,0x3,0xfe,0xe,0xfe,0x9,0x0,0x3,0x4,0x6,0xd7,0xa,0x0,0xf7,0xff,0xce,0xfa,0x0,0x1,0x0,0xdb,0xf7,0xfe,0xfb,0x7,0x4,0xd5,0xf3,0xea,0xec,0xe3,0xdb,0x12,0xff,0x0,0xdb,0x3d,0xff,0x2,0x0,0xf3,0x2,0xc9,0x18,0xc,0xaa,0x16,0x25,0x38,0x4,0x2,0x4,0xa6,0xec,0xfd,0x1,0xf8,0xc,0xf9,0xef,0xfb,0xf9,0x27,0xf6,0x1a,0xfd,0x0,0xfa,0x4,0xde,0x3,0x1,0x11,0xff,0xe3,0x19,0xfd,0xd0,0x24,0x3,0x22,0x0,0xfe,0x5,0xcb,0xeb,0x1,0xee,0x19,0x11,0x3,0xe6,0x17,0xff,0xf1,0xf1,0xef,0x3,0x0,0x2,0xf,0x4,0x2,0xfe,0x24,0x0,0xdd,0xe9,0x7,0xda,0xf0,0xff,0xfc,0xff,0xff,0xfb,0xd9,0xfd,0xfc,0xdf,0x9,0x4,0x14,0xf7,0x10,0xf6,0xfd,0xf8,0xfd,0xff,0x2,0xd7,0x1f,0xd8,0x1,0x2,0xd1,0x5,0xc1,0x17,0x7,0xb8,0x1a,0x2,0x0,0x1,0xff,0x5,0xd7,0x2,0xfd,0xcd,0x2c,0x12,0x4,0xf5,0xfd,0xf8,0xe9,0xf5,0xd9,0x3,0x0,0x5,0xfb,0xf6,0x3,0xfd,0xfd,0xff,0xec,0xe6,0x4,0xf9,0xea,0xe8,0xe8,0x1,0x4,0x2,0x16,0xb,0xfd,0x9,0x8,0x13,0x10,0x12,0xfd,0xf1,0xd7,0xf4,0x16,0x0,0x3,0xff,0x4,0xfb,0xff,0x3,0xe7,0x0,0xfa,0xe3,0x0,0xfb,0xf7,0x5,0xf2,0x4,0x3,0x5,0xfb,0x3,0x6,0xfc,0xee,0xb,0x13,0x1a,0x1b,0x14,0xe7,0x5,0xdc,0x0,0x2,0xc2,0x18,0xe9,0x2,0x3,0xe7,0x1,0xee,0xfb,0x8,0x1,0xe0,0x7,0x1d,0x4,0x1,0x0,0x10,0x1a,0x0,0x29,0xee,0xc,0xf5,0xb,0x18,0xf9,0xd8,0xee,0xd1,0x0,0x4,0xd0,0xc6,0xd,0x2,0x1,0xc,0x3,0xe0,0xfd,0x7,0xb,0xc6,0x19,0xd4,0x2,0x3,0x4,0xb,0xfe,0x4,0xfc,0xed,0xff,0xf,0xfe,0xe5,0xee,0x0,0xec,0xc9,0x4,0x2,0xe3,0xf7,0xf1,0xff,0x1,0x5,0xfc,0xdf,0xe,0xfd,0x16,0xb2,0x10,0xef,0x2,0xff,0x4,0x12,0x3a,0x6,0xa,0x14,0xe8,0x6,0x5,0x2,0x1e,0x7,0x2,0x7,0x4,0x3,0x19,0xeb,0xd6,0x0,0x4,0xef,0x0,0xd,0xa,0x2,0x19,0xfc,0xe3,0xed,0x1,0x2,0x0,0x11,0xa4,0x2,0xe9,0xa,0xba,0x27,0xa,0xf4,0x5,0x17,0x0,0xf4,0x2,0x1,0xfa,0xff,0x0,0x0,0x1,0x5,0xa,0x9,0xfe,0x2,0xf9,0x1f,0xca,0x0,0x1,0x3,0x1,0xf,0xb4,0xc,0xfa,0x10,0x7,0xe,0x17,0xef,0xc,0xee,0x0,0x4,0x0,0x0,0xd,0xd6,0xfa,0xff,0x0,0xdb,0x1,0x8,0xf4,0x2,0x25,0xfc,0xe7,0xda,0x5,0x3,0x4,0x6,0xde,0x7,0x0,0xf4,0xd7,0xf1,0x6,0x6,0x18,0xdc,0xc,0xf4,0x4,0x1,0xd1,0xf9,0xeb,0x0,0x0,0xf,0x0,0xe4,0xfb,0xb,0xfb,0xde,0xfe,0xf4,0x4,0x4,0x2,0x1b,0xc,0x2,0x8,0xf8,0xe6,0xd8,0x25,0x2,0x1b,0x13,0x18,0xf,0x4,0x0,0xb,0xfd,0xf2,0x3,0x1,0xf8,0x6,0x26,0xd,0x4,0x34,0x5,0x2,0xf8,0x3,0x3,0x3,0x29,0x13,0x4,0x23,0xf7,0x13,0xf7,0xf,0x1,0x9,0xeb,0x10,0x8,0x0,0x4,0xf8,0xec,0xe5,0x4,0x5,0xda,0x4,0x10,0xef,0x3,0x15,0x12,0xa,0xd6,0xfc,0x3,0xfe,0x5,0xe1,0xff,0x1,0x17,0xc,0xec,0xe6,0xb4,0x4,0xec,0xfd,0xf,0x4,0x3,0xa,0x9,0xd5,0x0,0x4,0xf9,0xff,0x3,0xf8,0x5,0xfe,0xb,0xf0,0xda,0xfb,0x1,0x5,0xef,0xb0,0xfc,0xe6,0xf2,0x1,0xea,0xea,0xf0,0x1a,0x5,0xe7,0xf7,0x2,0x2,0xf9,0xb,0x5,0x2,0x3,0xf6,0x4,0x8,0x16,0xff,0x9,0x2,0xfd,0xf7,0x0,0x2,0x2,0xf2,0xb9,0x1,0xda,0xed,0xf0,0x10,0x8,0xe3,0xec,0x37,0xf9,0x14,0x3,0x0,0x8,0xb,0xf9,0xfe,0x0,0x15,0xff,0xe,0x1a,0xfe,0x11,0x0,0xd5,0xea,0x2,0x4,0xff,0x10,0xea,0x1,0xf2,0x11,0x6,0xe5,0x9,0xd7,0xe9,0xfe,0x14,0x34,0x4,0x1,0xf2,0xfe,0x1e,0x0,0x2,0x2,0x2,0xe,0x2a,0xfd,0x20,0x19,0xf5,0xf6,0x0,0x2,0x0,0x16,0xf7,0xa,0xb,0x5,0xd,0xf0,0xea,0xe2,0xd,0xd8,0xfd,0x2,0x4,0x1,0x3,0xeb,0x21,0x2,0x2,0x2b,0x5,0xc7,0x12,0x4,0x12,0x1d,0x1a,0x15,0xff,0x0,0x1,0xd6,0xfb,0x3,0x1b,0xf8,0xf2,0xf6,0x1e,0x1,0xc5,0xce,0xf4,0xd1,0x2,0x1,0xe9,0x11,0x15,0x4,0xfc,0x3,0x8,0xd2,0xec,0x0,0xfd,0xa,0xf,0x63,0x2,0x0,0x1,0xe6,0xd8,0x0,0x24,0xd,0xeb,0x0,0xed,0xf2,0x10,0xc1,0xe2,0xfd,0xf8,0x3,0xd4,0x21,0xf3,0x1,0xff,0xd,0x0,0xfe,0xf4,0x7,0xe7,0xf6,0x2,0x2,0x3,0x3,0x5,0xe2,0xe9,0x1,0x15,0xd,0x10,0x1,0xd4,0x33,0xfe,0xe2,0x8,0x2e,0x1,0x0,0xf4,0x38,0xdc,0x4,0x3,0x2,0xa,0xf3,0x2,0xa,0xcb,0x10,0xf0,0x10,0x2,0x0,0x2,0xed,0xef,0x2,0xff,0x5,0xb,0x29,0xf7,0xb,0xf3,0xe,0x1d,0xfa,0x4,0xfd,0xfa,0x43,0xf6,0x4,0x4,0x2f,0xf,0x1f,0xf5,0x5,0x1,0x38,0xe3,0x12,0x0,0x2,0x0,0x14,0x9,0xfc,0x7,0xa,0x26,0x2d,0xd1,0xff,0x6,0xcb,0xdd,0xd6,0x2,0x1,0x14,0x1e,0x12,0x1,0x0,0x3,0x10,0xe7,0xd9,0x1,0xf,0xf5,0x14,0x47,0x3,0x0,0x0,0xd6,0xe0,0x3,0x2,0xf9,0x20,0xe1,0x19,0xe4,0x3,0xa4,0xe9,0xd5,0x1,0x2,0x9,0x25,0x16,0x4,0x2,0x6,0xb,0xdf,0xca,0xfe,0xce,0xd1,0x1,0x21,0x0,0x1,0x2,0xe1,0xef,0x2,0x3,0x4,0x25,0x8,0xd6,0x17,0xec,0xec,0xde,0xe2,0x4,0x1,0x5,0x4,0xef,0x2,0x4,0x3,0x0,0xce,0xc4,0xb,0xe9,0xd9,0xf3,0x15,0x0,0x2,0x0,0xf4,0xde,0xa,0xeb,0xd,0x15,0x20,0x1,0x3a,0xf9,0xb7,0xf6,0xe8,0x1,0x3,0xce,0x1b,0xf7,0x6,0x1,0xf8,0x3,0xe1,0xf4,0x10,0xf8,0xe5,0xf8,0x6,0x3,0x3,0x1,0xe2,0x4,0xfc,0xdc,0x1a,0x10,0x28,0xfb,0x3,0xf7,0x8,0xf1,0xea,0x1,0xfb,0xea,0x3,0xdf,0x4,0x0,0xd7,0x7,0xbe,0x25,0x9,0xdc,0x17,0xfb,0xf8,0x1,0x5,0x5,0xdc,0x1b,0x3,0x7,0x2f,0x19,0xfe,0xfd,0xf4,0xfa,0xf8,0xf3,0xc9,0x7,0x4,0x18,0x3,0x15,0x6,0xff,0xb,0xff,0xff,0x9,0x3,0xe1,0xe5,0xda,0xf8,0x1,0x5,0x1,0xfc,0xea,0x0,0xd,0x3,0xfd,0xfa,0x1b,0x14,0x7,0xfe,0xf8,0xf2,0x0,0x4,0xfa,0x2d,0x17,0x4,0x5,0xb,0x0,0xfe,0xe3,0xa,0xfd,0xe7,0x9,0xe,0x0,0x3,0x0,0xfd,0xbc,0x0,0xf2,0xfc,0xfd,0xd,0x17,0x14,0xb,0xf1,0x9,0xcb,0x5,0x5,0x2,0xfc,0xf9,0x2,0x0,0xfb,0x7,0xf6,0xce,0x6,0xa,0xdc,0xee,0xfc,0x5,0x3,0x0,0x16,0xff,0x7,0x1a,0x18,0xe3,0x9,0xe,0xf8,0xe1,0xda,0xee,0xc8,0x0,0x5,0xc5,0xf8,0xb,0x0,0x3,0xf6,0x5,0xd,0xe7,0x5,0xf5,0xcf,0x1a,0xe,0x1,0x4,0x0,0xf9,0xd,0x1,0xe9,0x7,0xe7,0x18,0x1,0xf9,0xe2,0x10,0xe5,0xcf,0x1,0x4,0xe8,0xec,0x1,0x4,0x2,0xe6,0x0,0x14,0xf,0x2,0x2b,0xd5,0xf,0xf7,0x1,0xfe,0x1,0x29,0x6,0x0,0xb,0xff,0xf9,0xd7,0xe,0xd,0xc,0x1,0xeb,0x5,0x1,0x5,0x1b,0xdf,0x24,0x6,0x3,0x10,0x2,0x1b,0xd,0x1,0x0,0xf6,0xe9,0xfb,0x0,0x2,0x0,0xfd,0xc7,0x0,0xee,0x8,0xc8,0x2,0xf8,0xe3,0x6,0x4,0x3,0x1,0x1,0x3,0x17,0xd6,0xf8,0xff,0x1,0x18,0x2,0xe,0xfd,0x4,0xff,0x0,0xdd,0xfb,0x1,0x4,0xfc,0xff,0xc1,0x2,0x14,0xe,0xd3,0xeb,0x19,0x5,0xd,0x24,0xa,0x7,0x3,0x2,0xf9,0xd6,0x9,0x3,0x5,0xfa,0x2,0x2,0x9,0x3,0x16,0xf7,0xe0,0xed,0x4,0x2,0x2,0x15,0xdf,0x8,0x19,0x3,0xc7,0xfe,0x2,0xed,0xf2,0x34,0x16,0xe8,0x1,0x5,0xf9,0xa,0xdf,0x4,0x4,0xf4,0x4,0xf7,0x0,0x3,0xd4,0xd9,0xfb,0x9,0x2,0x6,0x0,0xff,0xdc,0x5,0x1a,0xff,0xff,0xcd,0x0,0x18,0x3,0xeb,0xd,0xf5,0x2,0x1,0xf1,0x7,0xf4,0x2,0x0,0xe0,0x5,0xfe,0xf0,0x6,0x18,0x6,0x4,0xf5,0xfd,0x1,0x2,0xf8,0xdd,0x3,0x14,0xd,0xfe,0xc,0xf8,0xf3,0xef,0xfa,0x13,0xd,0x4,0x1,0xf9,0x16,0xfd,0x2,0xfc,0xc9,0x1,0xea,0x6,0x4,0x14,0xc,0x7,0x2,0xfe,0x5,0x2,0xa,0xf4,0x0,0xa,0x5,0xf7,0xf3,0xfb,0xca,0x1,0x0,0xf0,0xf4,0x0,0x3,0x13,0xf3,0xe9,0x2,0x0,0xf1,0x5,0x2,0x6,0xc,0xb,0xef,0xd,0xf7,0xfd,0x3,0xfd,0x5,0xbf,0x3,0xa,0xf6,0xe8,0x1e,0xea,0x15,0x12,0x24,0xf5,0xfe,0x1,0x5,0x0,0x10,0x5,0x1,0x1,0x1b,0x3,0x0,0x12,0x7,0xfb,0xf3,0xd6,0x24,0x1,0x4,0x1,0x5,0xd9,0x8,0xe,0xf4,0xf3,0xe,0xec,0xe5,0x0,0x31,0xf9,0xfd,0x4,0x4,0x29,0xf1,0xa,0x2,0x1,0x16,0x0,0xf4,0xfb,0x1,0xfe,0x2,0xef,0x6,0xfd,0xff,0x3,0x1,0xd6,0x2,0x3,0x3,0xfd,0xf3,0x7,0xc,0xfc,0x15,0xf0,0xff,0xfd,0xff,0x2c,0xe3,0x13,0x0,0xfe,0x20,0x6,0x9,0x1c,0xf8,0xfa,0x7,0xe3,0xcf,0x0,0x1,0xff,0xfc,0x1d,0x7,0x0,0x1e,0xb,0xec,0x0,0xf5,0xee,0xee,0xf7,0xb,0x2,0xfe,0x7,0xf2,0xf,0x0,0x0,0x2,0x13,0xe4,0xe3,0x1,0x8,0xd7,0x8,0x44,0x1,0xfb,0x1,0xf0,0xf3,0x4,0x3,0xfe,0x7,0x5,0x15,0x13,0x1c,0xba,0xf9,0xd8,0x1,0x2,0xf3,0xfb,0xe0,0x6,0xff,0x43,0x11,0xb1,0xcc,0x0,0x0,0xb4,0x10,0xc,0x3,0x1,0xff,0xfe,0xe5,0x3,0xd7,0xfc,0x3,0xfc,0xf0,0x7,0xf3,0xe7,0x25,0xd9,0x2,0xff,0xee,0x4a,0xe5,0x4,0x2,0xa,0xe,0xd8,0xdb,0x2,0xce,0x4,0xf3,0x14,0x0,0x4,0x0,0x4,0xfc,0x8,0xfc,0x7,0x1d,0x10,0xf5,0x14,0xf7,0xd6,0x2,0xf9,0x1,0x4,0xc,0x14,0xca,0x1,0xfb,0xea,0x7,0xf7,0xce,0xfd,0xf9,0x17,0xd6,0x18,0x0,0xff,0x1,0xfc,0xec,0xa,0x1d,0xf9,0x36,0x12,0xf0,0xee,0xf4,0x15,0x12,0x22,0x1,0xff,0xb,0x40,0xd4,0x0,0x1,0xfa,0x10,0xc,0xe0,0x0,0x10,0x11,0xea,0x4,0x3,0x4,0x0,0x19,0x8,0x10,0xfd,0xf3,0x21,0x9,0xd8,0xfc,0xf3,0xe1,0xe1,0xc1,0x1,0xff,0xff,0xf2,0xa,0xfd,0x3,0x16,0x3,0xe8,0xd9,0x3,0xf0,0xe4,0xed,0x10,0x4,0xfe,0xfb,0xc9,0xd5,0xfe,0xd0,0xf9,0xf3,0xfa,0x2,0xfb,0xfb,0xed,0xd0,0xc3,0x2,0x3,0xe6,0x9,0xc,0x3,0x1,0x16,0x6,0xfe,0xb5,0xfb,0xe2,0xdd,0xdb,0x21,0x1,0x2,0x0,0xf7,0xe3,0xfe,0xe4,0x7,0xfe,0x1,0x18,0xd,0xf8,0xca,0xf4,0xfc,0x3,0x2,0xd3,0x17,0xe8,0x0,0x2,0xfa,0x2,0xf8,0xf,0x5,0xe2,0xff,0xe3,0x28,0x1,0x3,0x3,0xf,0xeb,0x8,0x2,0xe,0x24,0x29,0xf3,0xe,0xf2,0xdb,0x12,0x26,0x5,0x0,0xd2,0xfa,0xff,0x0,0x0,0xb6,0x14,0x8,0x13,0x2,0x19,0x21,0xc1,0xed,0x5,0xff,0x2,0xf9,0x2f,0x8,0xf2,0x19,0x7,0x1e,0xf1,0x9d,0xed,0xfa,0x1f,0x1b,0x3,0x2,0xd6,0xf0,0xcc,0x4,0x1,0xb3,0x9,0x2e,0x30,0x6,0xfe,0x2f,0xec,0x97,0x0,0xff,0x0,0x2d,0x42,0x8,0xf5,0x3f,0xf,0xc6,0xc,0xba,0x10,0xfa,0x0,0xfb,0x5,0x1,0xff,0xf4,0xf2,0x0,0x0,0xff,0xfc,0xea,0xa,0x1,0xf7,0xcb,0xa,0xe9,0x4,0xfd,0xfe,0x0,0xfb,0x1,0xf9,0x1e,0xd6,0xf3,0xf0,0x24,0xfc,0xf1,0xa,0xf,0x1,0xff,0xdf,0xfd,0x0,0x2,0x1,0xf9,0xfe,0xf7,0xe3,0x1,0x9,0xb,0x1c,0xf9,0x4,0x4,0xfe,0x2,0xf1,0x4,0x0,0x2,0xf2,0xf,0xef,0x25,0xf9,0xd,0xe7,0xe9,0x5,0xfe,0xfc,0x5,0xff,0x0,0x2,0x16,0x0,0xef,0xef,0x5,0x16,0xf7,0x8,0x13,0x5,0x4,0x4,0xfe,0x28,0x6,0xf7,0xeb,0x1,0x20,0xfd,0xfb,0xe8,0x1e,0xe8,0x1,0xfc,0x1,0xf8,0xf7,0x9,0x3,0x0,0xe7,0xfc,0xe3,0x11,0xa,0x11,0x4,0x16,0xcc,0x4,0x0,0x0,0xf7,0x2a,0x1,0x12,0x5,0x1,0xe7,0xf7,0xd9,0xee,0xf5,0xfd,0x1c,0x1,0x5,0xc7,0xa2,0xf9,0x2,0xfd,0xc4,0xfc,0x7,0x1f,0xb,0x1c,0x25,0xa,0xe7,0x1,0xfd,0xfa,0xe1,0x10,0x3,0x7,0x49,0xcc,0xb7,0x24,0xf5,0xe,0xe,0xe,0xf9,0x2,0x2,0xfa,0xff,0xf,0x2,0xfd,0xd,0x1,0x14,0xf6,0x1,0x1d,0xfa,0x13,0xc4,0xfc,0x1,0x3,0x8,0xf,0x3,0xd,0xfb,0xfd,0xf1,0xf9,0x7,0xf2,0xfe,0xff,0x1,0x2,0x0,0xfb,0xe1,0x2c,0xff,0xff,0x9,0x4,0xf5,0x4,0xb,0xfb,0x9,0x32,0xf7,0xfe,0x4,0x4,0x15,0x14,0x7,0xed,0x16,0xc,0xed,0xfb,0xe3,0x11,0xa,0xfb,0xf1,0x4,0x4,0xd,0xf5,0x4,0x4,0x2,0x18,0x6,0xf1,0xa,0xb,0xf9,0xd,0x11,0xef,0x0,0x4,0xfd,0xa,0xf2,0x4,0xfe,0x14,0x0,0x5,0x7,0x16,0x1b,0xfd,0xe2,0xe4,0xff,0x0,0xff,0x0,0xfa,0x1,0xfe,0xe8,0x0,0x6,0xa,0xc,0xfa,0xdd,0x11,0x14,0x1,0x1,0x2,0x5,0xf2,0xd,0xa,0xd,0xff,0xeb,0x2,0x2e,0x9,0xea,0x5,0xf3,0xfd,0xfe,0x18,0xfa,0xe3,0x1,0xfd,0xe,0x0,0xdf,0xe9,0x5,0xe,0xc9,0x13,0xb,0x3,0x1,0xff,0xf8,0xf4,0x9,0xee,0x1,0xf3,0xd4,0xef,0xff,0xe0,0x9,0xef,0xec,0x0,0x0,0x11,0x7,0x3,0x0,0x0,0x6,0x3,0xf2,0x5,0x8,0x18,0xfc,0xb,0xfd,0x4,0xfb,0x5,0xee,0xf,0x5,0xf0,0x1a,0x2b,0xcc,0x1a,0xd7,0xeb,0x4,0xff,0xd,0x3,0x3,0x1a,0xf1,0xf,0x2,0x0,0xe6,0xa,0x11,0x8,0xfe,0x1,0xd5,0x2b,0x21,0x4,0x0,0xff,0xff,0x11,0x8,0xa,0xf4,0xfc,0xd6,0x1,0xe3,0x5,0xdb,0x8,0x2,0x0,0x4,0x16,0xe0,0xf4,0x4,0x0,0xc1,0x0,0x4,0xff,0x6,0x10,0xf4,0x26,0x7,0x2,0x0,0xfd,0x7,0xff,0xf,0xc,0x18,0x14,0xe7,0xf8,0xf1,0xc,0xa5,0xfd,0xe,0x4,0x4,0xde,0xfa,0xec,0x2,0x0,0xd8,0x7,0x7,0x14,0x6,0x9,0x10,0x15,0x8,0x0,0x2,0x2,0xfd,0x25,0x2,0xc,0xfe,0x10,0xe4,0xf4,0x1e,0x1,0xf0,0xfd,0xff,0xfd,0xff,0xe8,0xf7,0xfa,0xfd,0xff,0xea,0x2,0xf2,0xf6,0x10,0xf4,0x3,0x1,0x7,0x1,0x0,0x4,0xc,0x11,0xd,0xe3,0x0,0x0,0x1d,0xf5,0x14,0x5,0x12,0x1c,0xe8,0x1,0x4,0xf1,0xf2,0xf,0x0,0xfc,0x6,0xff,0xe2,0x14,0xfe,0xa,0xd,0x15,0xf0,0x4,0x1,0x1,0xf8,0xd9,0xfc,0x1,0xfb,0xee,0x5,0xf,0xf4,0xf,0xb,0x2f,0xf5,0xfd,0x1,0xe8,0xde,0x3e,0xfd,0xfc,0x27,0x11,0x4,0xff,0xfd,0x1d,0x26,0x11,0x2a,0x0,0xff,0xff,0xd0,0xed,0xfe,0xd6,0xf0,0xc,0xc,0x17,0x18,0xff,0xff,0x9,0xd9,0xd,0xfe,0xe7,0xd1,0x15,0xff,0xff,0x29,0x0,0x6,0xee,0x2,0xef,0x15,0xb,0x5,0x4,0x2,0xfc,0xe5,0xe5,0xf9,0xc0,0xf0,0xd3,0xf,0xf6,0x32,0xa,0x4,0xfb,0x16,0x4,0x0,0xf9,0x7,0xf,0xfb,0x5,0x11,0xff,0x31,0xf7,0x4,0xef,0x17,0x8,0xf,0xfc,0xff,0xfd,0xe7,0xf8,0xf8,0xc7,0xed,0xee,0x2f,0x6,0x22,0xe4,0xe9,0xef,0x24,0xff,0xfc,0xe7,0xf4,0xfe,0x0,0x0,0xf8,0x4,0xe0,0xf3,0x1,0xff,0xe0,0xfc,0xc,0x0,0x1,0xfb,0x5,0xec,0x8,0xf7,0xfb,0xfe,0x3e,0xf3,0xfc,0xf9,0xfa,0x6,0x5,0x4,0xfd,0x12,0xeb,0xa,0x2,0x0,0xf3,0x9,0xd3,0x1,0xff,0xe8,0x9,0x2c,0x27,0xfd,0x2,0x1,0xde,0xf2,0xfe,0xf0,0xec,0x1d,0xda,0x9,0xd1,0x2,0x14,0xf7,0x16,0xfe,0x0,0xef,0x28,0xf1,0xff,0x2,0xf3,0x5,0xf1,0x2,0xfc,0xed,0x11,0x27,0x30,0xff,0xff,0x0,0xc6,0x11,0xff,0xe8,0xf9,0x26,0xed,0xd6,0xfd,0xf9,0x6,0x18,0x14,0xfe,0xfd,0xf7,0xf8,0x0,0x0,0x0,0x1f,0xf8,0xcc,0xd,0xfd,0xd2,0x17,0x8,0x2c,0xfc,0x5,0x1,0xef,0xe6,0x2,0xe6,0x15,0x6,0x6,0xef,0x37,0xf6,0x1d,0xf8,0xf7,0x4,0xfd,0xf3,0xe2,0xec,0xfe,0x2,0x23,0xfe,0xc3,0xd7,0xf6,0xe3,0x16,0xee,0x11,0xff,0xff,0xfd,0xe5,0xf5,0xf2,0xda,0xf2,0x8,0x1d,0x7,0x9,0xfc,0xfd,0xde,0xcb,0xfb,0xfe,0xcb,0xf6,0xf5,0xfb,0xff,0x12,0x1,0x2,0xb2,0x5,0xb1,0xe5,0x2,0xf,0x1,0xfd,0xfe,0xe0,0xdd,0xb,0xd9,0xf5,0xe5,0x8,0xbc,0x9,0xd9,0x16,0x1a,0xdb,0x0,0x3,0xe3,0x14,0xee,0x3,0x4,0xe4,0xfa,0xd,0xef,0xfc,0xf6,0xe3,0xe5,0x15,0x4,0x2,0x2,0x4,0x2d,0x0,0x2c,0xf8,0x2d,0x6,0xfc,0x4,0xfc,0x5,0x0,0x1c,0xff,0x4,0xd,0xf1,0xde,0x2,0x1,0xea,0x2,0xfb,0x9,0xfe,0x2,0xf5,0x24,0xfa,0xfc,0x0,0xfd,0x4,0xf,0x0,0xfa,0x3,0x2,0x1,0x13,0xfb,0xf7,0xed,0xfb,0xec,0x1,0xff,0xfe,0x7,0xf3,0x3,0x4,0xf3,0x3,0xeb,0x1b,0xa,0x17,0xec,0x2e,0x12,0x1,0x1,0x5,0x14,0xd,0x0,0x18,0xf7,0x20,0x8,0x8,0x6,0xfa,0xf,0xe9,0xc8,0xfe,0xff,0xe4,0xe6,0xf0,0xfe,0xff,0x2a,0xff,0xd4,0xc7,0x0,0xbe,0xcb,0x1f,0x4,0x3,0x1,0xfc,0xe6,0xe9,0xf8,0xfc,0xfd,0xf4,0xfb,0xf7,0x12,0x26,0xe8,0x8,0x0,0xfe,0x2,0xec,0x3,0xf7,0xff,0xfb,0xfc,0xf7,0x22,0xd0,0xfd,0xfd,0xc3,0xe6,0xfc,0x0,0x2,0xfe,0x26,0x16,0x4,0x19,0x5,0xf3,0x25,0xdf,0xef,0x6,0x4,0x27,0x26,0x4,0x1,0x8,0xe9,0xef,0x3,0x5,0xee,0xff,0xf4,0xfa,0x5,0x21,0x19,0xfe,0xe2,0x0,0x1,0xfd,0x1c,0xe6,0x1,0xef,0xee,0xdf,0x3,0xe6,0xf4,0x2,0xea,0x12,0xd,0xff,0x2,0xd,0xf8,0x6,0xfd,0x5,0xf1,0x1,0xe,0x4,0xf7,0x0,0x1f,0xe1,0xc2,0xfc,0x3,0x5,0x3,0xf0,0x4,0xd1,0xf3,0xed,0x16,0xfc,0x12,0x8,0xe1,0xfc,0xee,0x2,0xff,0x6,0xe,0xf7,0x0,0xff,0xf9,0xfd,0x1b,0x0,0xfd,0x19,0xfd,0xf0,0x24,0x3,0x4,0x3,0x13,0x8,0x4,0x3,0xfc,0xef,0x15,0xeb,0xe6,0x13,0x3,0xf5,0xed,0x0,0x5,0xd6,0xd,0x6,0x2,0x0,0xd8,0xfb,0xe3,0xc4,0xb,0x1,0xe7,0xeb,0xf4,0x0,0x2,0xfe,0x15,0xfa,0xa,0x6,0xf4,0xe9,0xf9,0x1d,0xf1,0x1c,0xd,0xa,0xb,0x4,0x2,0xf9,0xf9,0xd,0x2,0x0,0xd3,0xfa,0x37,0xc,0xff,0xe,0xfe,0xbb,0xe3,0x1,0x2,0xfe,0x45,0x5b,0xfc,0x18,0xf5,0xf9,0xfe,0x3,0xf0,0x7,0x1c,0x20,0x28,0x3,0x2,0x5,0x9,0xd5,0x3,0x0,0xf5,0x2,0xe,0xf7,0x4,0xfc,0x6,0x10,0xd7,0xff,0x1,0xfb,0xa,0xf9,0x3,0x9,0xf0,0x15,0xf0,0x1,0x15,0x3,0xd,0x9,0x10,0xff,0x2,0xdf,0xfa,0xe4,0xff,0x3,0xf9,0xf8,0xf2,0xf9,0xc,0xf9,0xc,0xd0,0xfb,0x0,0x3,0xff,0x15,0x7,0x5,0xf3,0x1,0x5,0xfb,0x6,0x3,0xf0,0x3,0xf1,0xf4,0x0,0xfc,0xe0,0xf9,0xff,0x0,0x3,0x8,0x0,0xee,0xf4,0xf5,0xe,0xf,0xf,0x1a,0xfb,0x5,0xff,0xf6,0xca,0x6,0xe3,0xd,0xfc,0x1,0x5,0x12,0xe2,0x2c,0xe4,0xef,0xff,0x3,0xa,0xdc,0xf5,0xfd,0xff,0x0,0x5,0x1d,0x7,0xf5,0x26,0x6,0xf4,0xf2,0x1,0x3,0x1,0x13,0xd7,0x6,0x20,0xf0,0xe2,0x0,0xf0,0xee,0x6,0x20,0x8,0x12,0x3,0x4,0x24,0xde,0xff,0xff,0x4,0xd,0x4,0x4b,0x16,0xf4,0xa,0xff,0xf8,0xfd,0xff,0x4,0xfe,0x8,0x1a,0xa,0x2b,0xde,0xf8,0x11,0xe6,0xe6,0x1b,0x15,0x22,0x31,0xff,0x1,0xf4,0xed,0xf2,0xfe,0x3,0xf,0xc,0x14,0x2c,0x0,0xfa,0x1c,0xf5,0x2,0x4,0xff,0x2,0x0,0xd,0xfd,0xc,0xf3,0x1b,0xf4,0x1,0x1c,0xc2,0xf3,0xf5,0x13,0x0,0x2,0x5,0xc,0xd4,0x1,0x5,0xdf,0x1,0xf4,0x15,0xff,0xd,0x1a,0xda,0xd3,0x0,0x3,0xfc,0xf7,0x5,0x0,0x7,0xf6,0xe0,0xfc,0xeb,0xd5,0xf0,0xe6,0xf6,0x23,0x1,0x4,0xee,0xdd,0xf,0x3,0x0,0xad,0x11,0xf6,0xb,0x4,0x7,0xf,0xf8,0xd4,0x3,0x4,0x1,0x3,0xa,0xfe,0xe7,0xee,0xfc,0xf2,0xf,0xbe,0xef,0xef,0xef,0xfd,0x3,0x0,0x1b,0xc7,0xd,0x0,0x2,0xaa,0xa,0x2,0x17,0xf7,0xc,0x1,0xf7,0xe6,0x1,0x3,0x2,0xf8,0x8,0xff,0xed,0xf2,0xf1,0xcc,0x2a,0xa9,0xfd,0x8,0xa,0xd8,0x0,0x0,0x11,0xbe,0x8,0x0,0x3,0xe9,0xfe,0x11,0x10,0x2,0xf,0xcf,0xfb,0xf7,0x1,0x2,0x1,0xec,0xfc,0x5,0xdc,0xf4,0xc2,0xa3,0x7,0xee,0xeb,0xf4,0x5,0xfd,0x0,0x4,0xf6,0x18,0xe2,0xff,0x2,0x5,0xb,0x1,0x5,0xfe,0x10,0x2b,0x5,0xf7,0x3,0x0,0x4,0x12,0x0,0xfc,0x10,0xf3,0xfa,0xa,0xd,0x2b,0xf0,0xec,0x2,0xfe,0x1,0x0,0xf3,0xec,0xf5,0x4,0x4,0x6,0x8,0xf3,0x0,0xfe,0xb,0x6,0xc3,0xea,0x2,0x1,0x0,0xb,0xd,0xa,0x10,0xf0,0xff,0x11,0xfe,0xc,0xf7,0xc,0xeb,0xff,0x3,0x0,0x2,0xf1,0xef,0x2,0x3,0xe1,0x0,0xfd,0xf5,0xfb,0x6,0xb,0xe4,0xb9,0x4,0x3,0xfe,0xd,0x16,0xc,0x31,0xec,0x0,0xef,0xf1,0xa4,0xd9,0x19,0xeb,0xe9,0x0,0xff,0x1e,0xd1,0x11,0x1,0xfe,0xfa,0xfb,0x13,0xe9,0xfa,0x2,0xe5,0x13,0xe8,0x1,0x2,0x5,0xc,0x6,0x0,0x6,0xea,0xd0,0xa7,0xf,0xd6,0xee,0xed,0xe1,0xd1,0x4,0x0,0xf,0xf6,0x12,0x2,0x2,0x40,0x0,0x6,0xfe,0xfb,0xa,0xc5,0x1,0xdd,0x3,0x2,0x0,0xde,0xd8,0x0,0x1a,0xfa,0xc2,0xb2,0xfa,0xfd,0x1,0xfc,0x3,0xfa,0x2,0x4,0xe7,0x3,0x7,0x1,0x0,0x0,0x4,0x11,0xfc,0xfe,0x25,0x1a,0xd4,0x11,0x2,0xfb,0x2,0xf7,0xeb,0x1,0x5,0xf4,0x17,0x2b,0xf6,0x1a,0x0,0xf0,0xd5,0xf8,0x0,0x1,0x2,0x1e,0xff,0x4,0x0,0xa,0x2,0x10,0xfb,0x5,0xfd,0xe,0xb,0x9,0x0,0x5,0xff,0xf4,0x7,0x2,0x11,0x16,0x20,0x5,0x1c,0x3,0xf0,0xd6,0xef,0x2,0x3,0x0,0x16,0x7,0xde,0x0,0x0,0xeb,0x0,0x8,0x1f,0xfe,0x6,0x9,0xfa,0x18,0x3,0x3,0x5,0x9,0x12,0x0,0xf5,0xb,0x12,0xfd,0xb7,0x4,0xbd,0x2b,0xdc,0xf7,0x4,0x5,0xf,0x15,0xe6,0x1,0x5,0x0,0x3,0xf3,0xf7,0x3,0xcf,0x2,0x4,0x11,0x0,0x1,0xff,0xae,0xf9,0x6,0xfb,0x4,0xf8,0xa,0xf5,0xb,0xcd,0x2e,0xd1,0xe3,0x2,0x1,0xc,0xfd,0xd3,0x1,0x3,0x28,0x4,0xf5,0xc0,0xf9,0xe8,0xc6,0xf2,0x18,0x1,0x4,0x3,0xe9,0xcf,0xfc,0xf0,0xf4,0xf7,0x1e,0x9,0x3,0x15,0xc,0xe4,0xe3,0xff,0x4,0x3,0x6,0x5,0x0,0x3,0xe,0x0,0xe1,0xdd,0xff,0xf,0xeb,0xdc,0xee,0x0,0x3,0x2,0xf2,0xdd,0xff,0x13,0xf1,0xf7,0x7,0xed,0xf,0x8,0x1,0xef,0xf9,0x3,0x4,0x8,0x2b,0x4,0x3,0x1,0xc,0x1,0xfd,0xf5,0x4,0xe9,0xe,0xf0,0x2d,0x0,0x3,0x0,0x2,0xed,0x2,0x18,0xf8,0x12,0x1,0xf3,0x5,0xe4,0xc5,0xf5,0x12,0x0,0x2,0xc7,0x1f,0xa,0x2,0x3,0xef,0x6,0xf3,0xf2,0x5,0xd,0xf8,0x23,0x0,0x0,0x0,0x3,0xea,0x1f,0x6,0xfd,0x5,0x1b,0xfa,0xd9,0x22,0x0,0xf9,0xf7,0xe4,0x2,0x5,0xf3,0x17,0xe2,0x3,0x1,0x22,0x2,0xd9,0xd7,0xf5,0xe6,0xc8,0xdf,0xf,0x3,0xff,0x3,0xfa,0x21,0x6,0xe9,0x6,0x7,0x1f,0xc,0xdf,0xd,0x20,0xf5,0xee,0xff,0x0,0xfc,0x24,0xe2,0x2,0x2,0xf6,0x6,0x1c,0xfb,0x8,0xda,0xe0,0xcb,0xe,0x0,0x1,0x2,0xd0,0x13,0xfc,0x5,0x9,0xf5,0x39,0x9,0xe6,0xa,0xf6,0xf8,0x2,0x2,0x2,0x7,0x10,0xdf,0x4,0x0,0xf2,0x7,0xf1,0xfc,0x9,0xfd,0xfc,0xfc,0x2f,0x3,0x3,0x0,0x13,0xd2,0xfe,0xf3,0xe9,0xf5,0xfd,0x13,0xdf,0x3,0xe7,0xe,0x7,0x4,0x1,0x1e,0xdf,0xdd,0x4,0x4,0xee,0xff,0xb,0xf8,0xfb,0xfc,0x11,0xfd,0x1e,0x4,0x3,0x3,0xfd,0xd4,0xfd,0xee,0xeb,0xeb,0x3b,0x5,0x18,0xf3,0xed,0x2,0x1,0x3,0x4,0xee,0xf1,0xd,0x0,0x1,0x14,0xfd,0xa,0xb,0x5,0xf8,0x4,0x29,0x8,0x1,0x4,0x2,0x5,0xf2,0xfa,0xee,0xf6,0x0,0x18,0xe2,0xeb,0x13,0xec,0xf4,0xeb,0x1,0x3,0x2b,0xfe,0xf2,0x0,0xff,0x11,0xfe,0xd,0xd,0xc,0xdd,0x2,0xad,0xec,0x1,0x2,0x5,0xf5,0xf7,0xf4,0xdb,0xf6,0x6,0x9,0x20,0xc8,0x4,0xf,0xf2,0x2,0x4,0x2,0x20,0x7,0xf7,0x0,0x4,0x1c,0x3,0x37,0xf,0x1,0xf6,0xf8,0xd2,0xf2,0x3,0x0,0x4,0x7,0x1c,0x2,0xf4,0xfa,0x1,0xed,0xc,0xc3,0xf4,0xf2,0x17,0x0,0x1,0x0,0x3,0x3,0x3,0x3,0x1,0x0,0x3,0xe4,0x19,0x0,0x4,0x2a,0x4,0x6,0xfc,0x1,0x5,0xe6,0xef,0x1,0x8,0x13,0xec,0xff,0xf1,0xdc,0x7,0xe1,0xdc,0xe7,0xfe,0xfd,0x0,0x7,0x1,0xff,0x0,0x7,0xa,0xc3,0xf9,0x2,0xe9,0x2b,0xe3,0xed,0xff,0xfd,0xff,0xc0,0xe0,0x0,0xf9,0xe,0xde,0xf3,0x16,0xf3,0x10,0xf5,0xe1,0xfc,0x0,0xfd,0xfb,0xd,0x2c,0xff,0x4,0x15,0xfd,0xcf,0xea,0x3,0xe9,0x2f,0x9,0xf3,0xfd,0x4,0x0,0xfd,0xf6,0x2,0xde,0xa,0xf2,0x0,0x1b,0x21,0xfc,0x7,0xfe,0x6,0xfe,0xfe,0xee,0xf4,0xf2,0xfd,0x0,0x1a,0xfc,0x12,0xe7,0xfd,0xdc,0x33,0xee,0x13,0xfe,0x0,0x3,0xf8,0x6,0xff,0xea,0x8,0xf9,0x1d,0xf3,0x1d,0x23,0xf7,0xd7,0x23,0xfe,0xfc,0x3,0x2,0x5,0x0,0xfb,0x2,0xfe,0xd,0xf2,0xff,0xf4,0x1e,0xfe,0xef,0x0,0xff,0x1,0xde,0xec,0xfb,0x1d,0x8,0xf3,0x12,0xfb,0x16,0xf2,0xca,0xe2,0xf0,0xfc,0x0,0xe1,0x21,0xff,0xff,0xff,0xee,0x2,0x9,0xfc,0x4,0x4,0x5,0xf3,0xe6,0xfe,0x0,0x0,0xfe,0xc9,0x0,0x9,0x10,0xf4,0xdf,0xfc,0xe9,0xdf,0xf2,0xce,0xaf,0x0,0x0,0x2a,0xd5,0xe7,0xfe,0xfc,0xef,0xfe,0xad,0xc6,0x1,0x5,0xb3,0xf0,0xe4,0xfd,0xfc,0xff,0xc5,0xd7,0xfc,0x0,0x3,0xf5,0xd2,0xfe,0xd1,0xd2,0x1c,0xcd,0xd5,0xfc,0xfd,0xf1,0x7,0xf8,0x0,0xfe,0x12,0xfe,0xd0,0xc7,0xfe,0xcf,0xce,0xe3,0xd9,0x0,0x0,0xff,0xcb,0xd9,0x2,0xe0,0x14,0x6,0x12,0x23,0xe,0xba,0xf8,0x12,0x11,0xfe,0x3,0xdf,0x0,0xfc,0xff,0xff,0xf9,0x0,0x6,0x26,0xfb,0xf1,0x24,0xf4,0xa,0xff,0xfd,0x1,0x19,0xc,0x2,0xa,0xd,0x4,0x6,0xfe,0x15,0xfb,0x3,0x0,0xef,0xfc,0x1,0xf,0xf7,0xf5,0xfd,0x3,0xc,0x6,0xe8,0x7,0xfd,0xa,0x2,0x6,0xfd,0xfb,0xfc,0xfc,0xf6,0x3,0xfd,0xd,0x9,0x1,0x7,0xe,0xf2,0xfb,0xe6,0xfc,0xed,0xff,0xfb,0xc,0x14,0x4,0xfc,0xfc,0xbe,0xff,0xef,0xe5,0xff,0x6,0xf2,0xef,0xef,0xff,0x0,0x3,0x3,0x1b,0x1,0x17,0xb,0x12,0xe3,0xf3,0xd2,0xb1,0xcc,0xdd,0xea,0xfd,0xfc,0xdd,0xfa,0xfc,0x1,0xff,0x17,0x1,0xc7,0xe0,0xfc,0xe0,0xed,0xec,0xdd,0xff,0xfc,0x5,0xf5,0xec,0xff,0xfd,0x8,0xec,0x4,0xcc,0xeb,0xc0,0xf2,0xdd,0xcc,0xfd,0xfd,0xa,0xfc,0x18,0xff,0xfe,0xf5,0xfc,0xdf,0xdc,0x2,0xdc,0xe2,0x4,0xfa,0xfc,0x2,0xff,0xb8,0xe3,0xfd,0xea,0x6,0xf8,0x18,0x20,0xdb,0xc8,0x10,0xe1,0xc7,0x4,0xfb,0x5,0xa,0xed,0xfd,0xfb,0xcf,0xfc,0xfe,0xe9,0xfa,0xc6,0x3,0x18,0x19,0xfd,0x0,0x0,0xc0,0xff,0xfc,0x10,0xfc,0xfb,0xd5,0x2,0x1a,0xf3,0x1c,0xee,0xf9,0xfe,0xfd,0x1d,0x2,0xde,0xff,0x0,0xf8,0xa,0xdc,0xe8,0xfc,0xf3,0x2,0xe1,0xdc,0x0,0xff,0x2,0xe1,0xdd,0x1,0xec,0x7,0x15,0xf1,0x3,0xd2,0xfa,0x3,0x4,0x3,0xff,0xff,0xfb,0x15,0x9,0xfe,0xfd,0xeb,0x0,0x30,0xea,0xff,0xd,0xfd,0xeb,0xf8,0x0,0x0,0x0,0xb,0x29,0x3,0xff,0xa,0x6,0xf4,0x6,0xdc,0xd1,0xce,0x13,0x4,0xfc,0x1,0xc2,0xf3,0xd3,0x0,0x0,0xfe,0xfd,0xd6,0xd3,0x0,0xea,0x7,0xe9,0xec,0xfe,0x0,0x0,0xeb,0xc2,0x3,0x2,0x8,0x15,0xf9,0xf9,0xfd,0xe9,0x3c,0x8,0xcc,0x0,0xfc,0x12,0x3b,0xf0,0xfd,0x0,0x12,0xfd,0xf0,0x2,0x4,0xbf,0xf9,0xf5,0x4,0xfe,0xfd,0xfe,0xc8,0xfd,0x4,0x1,0x7,0xfb,0xc,0x4,0x0,0xcf,0xd2,0xc0,0xee,0x1,0xfe,0xf9,0x2,0xee,0x0,0x0,0xed,0xfe,0xd,0xea,0xfd,0xe9,0x18,0xd9,0xff,0xfc,0xfe,0xfc,0xe1,0xca,0x1,0x20,0xa,0xff,0x2c,0xf5,0xfb,0xfb,0x22,0xa,0xd5,0xfe,0x0,0x1c,0xd6,0xfd,0xfd,0x0,0x18,0x0,0xe7,0xd5,0xf9,0xe1,0xe5,0xcb,0x1,0xfd,0xff,0xfd,0xed,0x8,0xfb,0xdf,0x2,0xf3,0xdf,0xf8,0xe6,0xec,0xf8,0x16,0xef,0xfd,0x0,0x1,0xf,0xfe,0xfc,0xfe,0x5,0xff,0xe2,0x1d,0xfe,0xfc,0x16,0x4,0x14,0x4,0xff,0x0,0xee,0xe3,0xfc,0x4,0xa,0xed,0x10,0x21,0xf2,0xdc,0xe,0xe0,0xf6,0x1,0xfe,0xe2,0x2f,0xf9,0xfe,0x0,0x5,0x4,0xf9,0xf0,0xfe,0xef,0x5,0xfa,0x5,0xfc,0xfd,0x3,0xfc,0x18,0xfd,0xfc,0xef,0x1b,0xff,0xf,0xe,0xee,0x2e,0xd8,0xde,0xfc,0xff,0x41,0x0,0xc,0x0,0xfc,0x11,0xff,0x7,0xe0,0x6,0xe8,0xf8,0x7,0xe8,0xfb,0xff,0xff,0xff,0x33,0x1,0x11,0x13,0xf0,0xfa,0xe,0xe,0xf9,0xf,0xd3,0xdb,0xfe,0xfc,0xe1,0xe9,0xb,0xfe,0xff,0x8,0x1,0xf3,0xd,0x1,0xf4,0x3,0x5,0xf9,0xfd,0xfe,0xfe,0xd5,0x14,0xfe,0x21,0xd,0xed,0x16,0xfa,0xfe,0x6,0x6,0xf3,0xed,0xfc,0xfe,0xa,0xd0,0xfb,0xfb,0xfe,0x5,0xfe,0xfb,0xff,0xf7,0xf6,0xd6,0x17,0xd2,0x1,0x1,0x0,0xea,0x14,0x4,0x2,0x10,0xc9,0x3,0xe7,0x6,0xfe,0xfd,0xff,0xfe,0xfb,0xff,0xff,0x1,0xfd,0xfc,0xff,0xfc,0xfe,0xfb,0x1,0xfb,0xfe,0x0,0xfc,0xff,0xfd,0x0,0xfc,0xfc,0xfc,0xfe,0xff,0x1,0xff,0xfd,0xff,0x0,0xfd,0xfc,0x0,0xfe,0xff,0x0,0xff,0x0,0xff,0xfe,0x0,0xfd,0x0,0xfd,0xff,0xfd,0xfc,0x0,0xfd,0xfb,0xfe,0xfc,0x0,0xfd,0xfb,0xfe,0x0,0xfe,0x1,0x1,0xff,0xfb,0xff,0xfd,0xfd,0xfc,0xfc,0xfd,0xfc,0xfc,0x0,0xfd,0xfd,0xff,0x0,0xfe,0x0,0xfc,0xfc,0xfe,0xfc,0x0,0x0,0xfe,0xfe,0xfc,0xfd,0xfc,0xfc,0xfd,0xfd,0x0,0xfb,0x0,0xff,0xfd,0xff,0xff,0xfb,0xfd,0xfe,0xfc,0xfe,0xfe,0xfe,0x1,0xfc,0xff,0xff,0xfc,0xfe,0x0,0xff,0xff,0xfb,0x0,0xff,0xfc,0xfc,0xfd,0x0,0xfe,0x0,0x0,0xff,0xfd,0x0,0x0,0xfe,0xfe,0x0,0x0,0x0,0xfe,0xfd,0xfc,0xfe,0x2,0xfe,0xfc,0xfd,0xfb,0xff,0xfd,0xfd,0xff,0xfb,0xfd,0xfd,0xfc,0xfc,0xfd,0xff,0xff,0x0,0x1,0xfd,0xfc,0x0,0x0,0x1,0xfd,0xfc,0x0,0xfc,0x0,0xff,0xfd,0xff,0xff,0xfb,0xfc,0xfd,0xff,0xfc,0x1,0xfd,0xfd,0xfc,0x0,0x1,0xfb,0xfc,0x1,0xfd,0xfe,0xfc,0xfe,0xff,0x2,0x0,0xfb,0xff,0xfb,0xfc,0xfb,0x0,0x0,0xfe,0x1,0xfc,0xfc,0xfe,0x0,0xfc,0xff,0xfe,0xff,0xfd,0xfd,0xfb,0x0,0xfd,0xfc,0xfe,0xfc,0xfd,0xff,0xfd,0xfd,0x0,0xfc,0xfc,0x0,0xfd,0xfd,0xfe,0xfe,0x1,0x0,0xff,0xfd,0xfe,0xfc,0x0,0xff,0xfc,0xfe,0x1,0xff,0x0,0x0,0xfe,0xfb,0xff,0xfe,0xfc,0x0,0xfe,0xfd,0xfd,0xfe,0x0,0x1,0x0,0xfd,0xfc,0x0,0x0,0x0,0xff,0xfc,0xfc,0xfe,0xff,0x0,0xfc,0xff,0xfc,0xfd,0xff,0xfc,0xff,0xfc,0x0,0xfd,0xfb,0xfe,0xff,0xfd,0x0,0xfe,0x0,0x0,0xfc,0xfe,0xfe,0xfe,0xfe,0xfe,0x0,0xfe,0xfe,0xfc,0xfb,0xfd,0xfb,0xfc,0xff,0x1,0xfd,0x0,0xfc,0xfd,0xfe,0xfe,0xff,0x0,0x1,0x0,0x0,0xfe,0xfb,0xfc,0xfe,0xfe,0xfb,0xfd,0x0,0xfc,0x0,0xfe,0xfd,0xff,0xfc,0xfd,0x0,0x0,0xfc,0x0,0xff,0xff,0xff,0xff,0xfc,0xfe,0xfb,0x0,0xfb,0xfd,0x1,0xfb,0xfd,0x0,0xfc,0x0,0x0,0x3,0xfb,0x0,0xfc,0xfe,0xfc,0xfd,0xff,0x0,0xfd,0xfb,0x1,0x1,0xff,0xfc,0xfe,0xfc,0x0,0x0,0xfd,0xfe,0xfb,0xff,0xfd,0xfd,0x1,0xfb,0xfe,0xfe,0xfb,0xfd,0x0,0xfd,0xfd,0x0,0xfc,0x0,0xfc,0xfd,0xfb,0xfe,0xfd,0xfe,0xff,0xff,0xfb,0xfd,0xff,0x0,0xfc,0x0,0xfe,0x1,0xfd,0xfd,0xfe,0xff,0xfc,0xfe,0xfd,0x0,0x0,0xfb,0xff,0xfc,0xff,0xfe,0xfd,0xff,0x1,0x0,0xfd,0x0,0x0,0xfd,0xfd,0xfd,0xfe,0xfd,0xfe,0xfb,0xfe,0xfd,0x0,0x1,0x0,0xfd,0xfe,0xfc,0x1,0xfe,0xff,0xfd,0xfb,0xff,0x0,0x0,0xfc,0x0,0xfb,0xfd,0xfe,0xff,0xff,0xff,0xff,0xfc,0xfc,0xfd,0x0,0x0,0x0,0x0,0xff,0xfd,0xfc,0xfe,0xfe,0xfd,0x0,0x1,0xfc,0x0,0xfe,0xff,0xfb,0xfe,0xfc,0xfd,0xfd,0xfc,0x0,0xfe,0xfc,0xff,0xfb,0xfe,0xfd,0xfc,0xfb,0xfe,0xfe,0xfe,0x0,0xfd,0xfb,0xff,0xfc,0xfd,0xfc,0xfd,0xfd,0xfc,0xfc,0x0,0x0,0x0,0x0,0xff,0x0,0x0,0xfd,0xfe,0x0,0x0,0xfd,0x0,0xff,0xff,0xff,0xff,0x0,0xfd,0xff,0xff,0xff,0x1,0x0,0xfc,0xfd,0xfe,0xfe,0xfd,0x1,0xfc,0xff,0x0,0xfb,0xff,0xfd,0xfe,0xff,0xfb,0xff,0xfc,0xfc,0x0,0x0,0xfd,0xff,0xfb,0xfd,0x1,0xfc,0xfb,0x0,0x0,0x0,0xff,0xfe,0x0,0x1,0xfe,0xff,0x0,0xfb,0xfd,0xff,0xfd,0xff,0xff,0xfe,0xff,0xfd,0xff,0xfb,0xff,0xfe,0xfd,0x0,0xfd,0xff,0xfb,0xfc,0xfb,0xff,0xff,0xfd,0xfc,0x0,0x1,0x1,0x0,0xfd,0xfe,0xfd,0x0,0xfc,0xfd,0x0,0xfc,0xfe,0xff,0xfd,0xfd,0xfc,0xfe,0xfc,0xfc,0xfd,0x0,0x0,0x1,0xfb,0xfd,0xfe,0x0,0xfc,0xfe,0xfd,0x0,0x0,0xfc,0xfb,0xfe,0xfe,0xfd,0xfd,0x0,0xfb,0xfd,0xff,0x0,0xfd,0xfe,0xfc,0x0,0xfd,0x1,0x0,0xfd,0xff,0xff,0xff,0xff,0xfe,0x0,0xfe,0x0,0xfc,0xfc,0x0,0xfb,0xfd,0xfc,0xfc,0xfc,0xfd,0x0,0xff,0xfd,0xff,0xfc,0x2,0xfe,0xfc,0x1,0xff,0xfe,0xfe,0x0,0xff,0x1,0x0,0x1,0xfc,0x0,0x0,0xfc,0xfb,0xff,0xfb,0xff,0xff,0xfd,0xfe,0xff,0xfe,0x0,0xfe,0xfd,0xff,0xfc,0xff,0x1,0xfd,0xfe,0xff,0xff,0xfe,0xfb,0xfd,0xfe,0xfb,0x0,0x1,0xfb,0xff,0x0,0xfd,0xfd,0x0,0x0,0x0,0xff,0xfe,0x0,0xfb,0x0,0x0,0x0,0xfd,0x0,0xff,0x0,0x0,0xfc,0xff,0x0,0xff,0xfc,0x0,0xfe,0xfc,0x0,0x0,0xfb,0xff,0xfb,0xff,0x0,0x0,0x1,0x1,0xff,0xff,0x1,0x0,0xfe,0x0,0xfd,0xfc,0x1,0x0,0xfc,0x0,0xfc,0xfc,0xff,0xfc,0xfd,0xff,0xfc,0xfc,0xfb,0xfc,0x0,0xfe,0xfe,0xff,0xfd,0x0,0xfc,0xfd,0xfe,0xfe,0xfe,0xff,0xfc,0xfc,0xfd,0xfd,0xfb,0xfc,0x1,0x1,0x1,0x1,0xfd,0xfd,0x0,0x0,0xfd,0xfb,0xff,0x0,0xfd,0x0,0xff,0xfe,0x0,0x6,0xea,0x0,0xfd,0x2,0x2,0x18,0x2,0xe1,0x0,0x3,0x10,0xa,0x1,0xc0,0x3,0xc,0xda,0xdd,0xfc,0x2,0x4,0x1,0xe,0x9,0x1,0x21,0xb,0x0,0xf5,0xc,0xf4,0x1e,0x7,0xe7,0x12,0xff,0x3,0xea,0xf,0xfc,0x0,0x2,0xfc,0x8,0x11,0xfc,0x2,0x9,0x7,0x12,0xc,0x4,0x0,0x4,0xf,0xf0,0x4,0x1f,0xd,0xef,0xf1,0xfc,0xea,0x16,0x29,0xa,0xfe,0x4,0x1,0xfc,0x20,0x3,0xff,0x2,0x2,0xfb,0xc,0xec,0x3,0xfb,0xea,0xf9,0x8,0x2,0x1,0x2,0x11,0x9,0xd,0x12,0xd,0xfa,0xff,0xd,0x9,0x2b,0x0,0x28,0x7,0x4,0x4,0xd,0x21,0x10,0x0,0x4,0xfe,0xfa,0x9,0xea,0x0,0x8,0x1,0x7,0x3,0x4,0x1,0x0,0x5,0xfc,0x7,0xf5,0xf4,0x24,0xf9,0x18,0xff,0xf6,0x0,0x10,0x8,0x3,0xff,0xfa,0x10,0xee,0xfe,0x4,0xee,0xff,0x22,0x1,0x4,0x3,0x5,0x11,0xf6,0x5,0x2,0x5,0x1d,0xe,0x1,0xf2,0x4,0x17,0xe2,0x8,0xf0,0xe4,0xf6,0x17,0xa,0x2,0x5,0xee,0xf4,0xfd,0x2,0x2,0x2,0x2,0x12,0x14,0x4,0xfa,0xfd,0xe1,0xfd,0xff,0x3,0x3,0xec,0xf6,0x4,0x9,0xf,0x7,0x4,0xf,0xf1,0xc5,0xfc,0x12,0x14,0x0,0x0,0xca,0x9,0xed,0x1,0x2,0xee,0xfe,0xec,0xf0,0xfe,0x0,0xe9,0xe0,0x32,0x2,0x0,0x2,0xf9,0x10,0xfc,0xd,0x10,0xf4,0xfd,0x9,0xde,0xf5,0x18,0x1,0x17,0x1,0x3,0xc1,0x17,0x0,0x4,0x1,0xef,0x0,0xed,0xef,0x7,0x16,0xeb,0x4,0x25,0x1,0x4,0x0,0x2,0xe,0x0,0x14,0xfb,0x7,0x5,0xf2,0xa,0xf,0x14,0x14,0xf,0xff,0xff,0x4,0xff,0xec,0xff,0xff,0xda,0x6,0x7,0xb,0x8,0x4,0x17,0xfc,0xfe,0x1,0x2,0x1,0x8,0x6,0x4,0xee,0x2,0x1c,0xea,0x18,0x8,0x12,0x10,0x15,0x19,0x0,0x1,0xfe,0xf1,0xfe,0x3,0x3,0xf0,0x7,0x2a,0x2,0x13,0xf3,0x1c,0x0,0xef,0x2,0xff,0x0,0x1c,0x1b,0xfe,0xe8,0x19,0xea,0xc2,0x26,0xe3,0xf4,0xfb,0x9,0x1f,0x8,0x1,0xe2,0xf,0x17,0xff,0x3,0xd,0x0,0xd7,0x9,0xfd,0xe4,0xe2,0x3,0x6,0x1,0x1,0x3,0xd6,0x2,0xff,0xa,0xff,0x20,0x9,0x8,0x22,0xec,0x18,0xe,0xf5,0xfe,0x2,0xcf,0xee,0x0,0x1,0x0,0x14,0x3,0xf3,0xfd,0x1,0xdb,0xf4,0x5,0x7,0x4,0x1,0x1,0xd4,0xe5,0xfc,0x19,0xf0,0x2,0x3,0xfc,0x29,0x15,0x45,0xfa,0xf6,0x2,0x0,0xd,0x14,0x16,0xff,0x2,0xeb,0x0,0xc,0xf6,0x5,0xea,0xf0,0xde,0xa,0x3,0x1,0x4,0xfc,0xd1,0xfe,0x7,0xf5,0xe,0x1d,0xfe,0x18,0x0,0x34,0xe8,0x11,0x1,0xff,0x7,0xdb,0x7,0x2,0x1,0xe6,0x4,0x3,0x24,0xb,0xb,0x28,0xa,0xb3,0x2,0x1,0xff,0x1b,0x8,0xff,0x14,0xfd,0x35,0xcb,0xdb,0xbc,0xdd,0x39,0xf9,0x25,0x0,0x0,0x26,0xdf,0x13,0x5,0x1,0xfa,0x4,0x1b,0x23,0x9,0x16,0x20,0x8,0xee,0x3,0x4,0x2,0xf5,0x14,0xfb,0x11,0xfe,0xdf,0xf5,0xfa,0xfa,0x1,0x3,0xfa,0xf1,0x3,0x1,0xfa,0xf1,0x1e,0x1,0x3,0x1b,0xa,0xf0,0x8,0x4,0x14,0xd5,0x3e,0xb,0x2,0xfe,0x4,0x0,0xa,0xfc,0xf3,0x29,0xe9,0xf1,0x1d,0xfa,0xf0,0x11,0xfe,0x6,0x4,0x0,0xfc,0xf1,0xf3,0xfe,0x5,0x10,0x8,0x3,0xa,0xb,0xea,0x5,0x35,0x3c,0x3,0x0,0x0,0xff,0xe3,0xf8,0xed,0x1b,0xed,0xd1,0x12,0xf5,0x5,0x2d,0xf6,0x4,0x0,0x3,0xe,0x2b,0x1,0x3,0x2,0xdc,0x9,0x6,0x17,0xe,0xe7,0x8,0x46,0xe6,0x1,0x1,0x4,0xfa,0xe6,0xfe,0xd8,0x1f,0x8,0xd3,0xf6,0x25,0xd,0xfa,0xfc,0xf6,0x4,0x0,0xfe,0x2,0xfd,0x0,0x0,0x4,0x5,0x1c,0xf,0xb,0xf,0xea,0x29,0x7,0x1,0x0,0x3,0xf1,0xb,0x5,0x10,0xc,0xe6,0x1f,0xd3,0x18,0xd8,0xfe,0x9,0x9,0x1,0x5,0x1c,0x0,0xf1,0x3,0x2,0x1a,0xf9,0xe3,0xc4,0x6,0xf,0xdb,0x12,0x13,0x1,0x5,0xff,0xdd,0xc9,0x7,0xd2,0xf9,0xb,0xf8,0xea,0xb,0xfc,0xb,0xd4,0xf3,0xfe,0xff,0x3,0xf9,0x8,0x1,0x3,0x13,0x3,0x8,0x9,0xc,0x3e,0xf4,0xf4,0x31,0x4,0xff,0x0,0x12,0x8,0x2,0x37,0x1b,0xe8,0xd9,0x21,0xfc,0x3,0x3,0xfd,0x7,0x0,0x2,0x16,0xd5,0xf6,0x3,0x4,0xe3,0x5,0x3,0xf0,0xfc,0xf2,0xe1,0x25,0xf6,0x3,0x0,0x2,0x9,0x1d,0x5,0x1a,0xe,0xdf,0xca,0x16,0xd8,0xf8,0xe4,0xd,0x1b,0x3,0x3,0xa,0xf8,0x9,0x3,0xff,0xb1,0x5,0x8,0xa,0xff,0xb,0xf4,0x2e,0xf6,0x0,0xfd,0x0,0x17,0x1c,0xfd,0xd,0xff,0x21,0xcc,0x2,0xd1,0xe9,0xe9,0x11,0x0,0x2,0x3,0xec,0xfe,0xdf,0x5,0x2,0xcc,0xfa,0xd,0xe7,0xc,0xdb,0x10,0x1f,0x9,0x2,0x0,0x3,0x4,0x3,0xfa,0xeb,0xfb,0x12,0xc5,0xf8,0xef,0xe5,0xdb,0xe,0xb,0x0,0x3,0xf2,0x1c,0xda,0x0,0x0,0xcd,0x1,0xbe,0xf4,0x0,0xd9,0xf9,0x9,0xf,0x2,0x3,0x4,0xfa,0xf4,0x9,0xca,0xa,0x19,0x1c,0xd9,0x3,0xfc,0x21,0x5,0x1b,0x0,0x3,0x17,0xc,0xee,0x2,0x5,0xf0,0xfc,0xff,0x8,0xff,0xec,0x22,0xa,0xec,0x2,0xff,0x5,0xc,0xe7,0x6,0xf,0xec,0xee,0xf9,0x1b,0x0,0xf1,0x3,0x5,0x6,0x0,0x1,0xa,0xea,0xc2,0x0,0x2,0xfc,0xfb,0x24,0x4,0xfc,0xfe,0x21,0xea,0xdf,0x1,0xfd,0xff,0x2,0x8,0xfd,0xfc,0xf5,0x1c,0xe,0x8,0x4,0xd,0x4,0xf7,0xee,0xfc,0xfb,0x20,0x1e,0x1d,0x0,0x0,0x0,0x1,0xe,0x5,0xfc,0x5,0x16,0x15,0x12,0x0,0xff,0xff,0xf8,0xfe,0xfe,0x17,0xee,0xdd,0xf5,0x8,0xea,0x1f,0xf8,0x29,0xea,0xfb,0xfc,0x13,0xfa,0x4,0x0,0x0,0x7,0xfb,0x19,0xfc,0x0,0x10,0xc,0x24,0xfa,0xff,0xfd,0x0,0x8,0xf7,0xfb,0x1,0x10,0xe7,0xfc,0x11,0xf2,0xf5,0x0,0xe9,0x6,0xfe,0xff,0xea,0xff,0x0,0xfe,0x1,0xc,0xf9,0x8,0xe6,0x2,0x1b,0xfe,0xfc,0xd,0xfe,0xfc,0xfd,0xef,0xf5,0x3,0xa,0x1,0xdb,0xf1,0xef,0x14,0x0,0xa,0xa,0x7,0x0,0xff,0xeb,0x4,0x28,0xfe,0x5,0xf6,0xfc,0x1e,0xfa,0x0,0xa,0x1,0x13,0xf1,0x1,0x3,0x3,0xe9,0x1d,0x0,0xe5,0xf0,0x5,0xd8,0x17,0x4,0xd8,0xff,0x2,0x19,0xfb,0x0,0xf5,0x17,0xd0,0xfe,0x0,0xfb,0xfe,0xf9,0x23,0x4,0xfe,0x3,0xed,0xcd,0xfe,0xfb,0xfd,0xf4,0xfc,0xc,0xd7,0x3,0xa,0xea,0xff,0xd1,0xdc,0x26,0x17,0xc,0xfc,0xfd,0x2,0x11,0x7,0x0,0xfe,0x26,0xff,0xb,0x6,0xff,0x7,0xa,0xc,0xd6,0xfd,0x0,0xfd,0x6,0xe0,0xfa,0xfe,0x8,0x2b,0xdf,0x1,0xeb,0xd1,0x17,0x2,0x16,0x1,0xff,0x13,0x18,0x14,0x0,0xfc,0x16,0x1,0x8,0x19,0xfc,0xf5,0xb,0x15,0x19,0xfe,0x0,0xfc,0xf7,0xf8,0xf8,0xb,0x12,0xf5,0x24,0xed,0xff,0xf4,0xf9,0xfd,0xee,0x4,0x1,0x8,0x9,0xf8,0xff,0x0,0x1e,0x3,0xf8,0xe2,0xff,0x5,0xcb,0xf2,0xfa,0xff,0x0,0xfb,0xf1,0xfd,0x2,0x0,0xf4,0xd6,0xa,0xf7,0x1,0xd1,0xfc,0x24,0x14,0x0,0x2,0x12,0x18,0xd0,0x1,0x1,0xb3,0x3,0x1a,0x1e,0xfc,0x1,0xe8,0xfd,0x9,0xfb,0xfc,0x4,0x10,0x1a,0x5,0xfd,0x7,0x1a,0xef,0xdb,0xfb,0xb3,0xdb,0x10,0x2d,0xfe,0x0,0xdf,0xfe,0xf6,0xfe,0x0,0x2,0xc,0xd5,0xa,0x4,0xf7,0xd,0x1d,0xaa,0x0,0xfc,0x1,0x5,0x2c,0xf9,0x34,0x14,0x21,0xeb,0xd4,0x11,0xc8,0xe3,0xec,0x4,0x2,0xfd,0xd4,0xdf,0x0,0xfd,0x1,0x9,0xfd,0xc8,0x22,0x7,0x15,0xb,0x4b,0xef,0x5,0xfd,0xfe,0xdb,0x21,0xfd,0x17,0xf3,0x1f,0x3,0x1,0xd5,0xee,0x17,0xd4,0xf0,0x0,0xff,0xc,0x23,0xce,0xfe,0x2,0x9,0x7,0xc4,0x14,0x1,0xd6,0xe,0x6,0x18,0x0,0x1,0xfc,0xeb,0xfd,0xfa,0x32,0xe7,0x12,0xff,0xdb,0x17,0x5,0xef,0xea,0xe5,0x0,0x2,0xe3,0xd,0xd4,0x2,0x0,0xed,0x4,0xd6,0xf4,0xf7,0xe5,0xf2,0xd6,0x3,0x3,0x0,0xfe,0x6,0x1c,0xfe,0xf4,0xfc,0x10,0x31,0xe4,0xf8,0x1,0xdd,0x16,0x9,0xfb,0x1,0xf4,0x15,0xdc,0xff,0x0,0xe,0x3,0xf9,0xd3,0x5,0x2,0x7,0xc7,0xf2,0x4,0xfc,0x0,0x0,0x3,0xfc,0xe7,0x7,0x34,0x12,0xdd,0x2b,0xb,0xd3,0xfb,0xd8,0xff,0xff,0xca,0xd,0xff,0xfe,0xff,0x9,0xff,0xd1,0xd1,0xfb,0xee,0xf7,0xb8,0xaa,0x0,0xfd,0x2,0xeb,0x2,0x8,0xc,0xa,0x30,0x24,0x9,0xe,0xdd,0xc0,0xf,0xe7,0xfc,0x0,0xef,0x12,0x25,0xfd,0xfe,0xf3,0xfc,0xf1,0xd6,0xfc,0x19,0xf6,0xff,0xb,0x1,0xfe,0xfe,0xec,0x0,0x0,0x1b,0xf2,0x1,0x8,0x1b,0xc,0xc,0xe8,0x2,0xff,0x1,0xfc,0xde,0xb,0xf4,0xff,0xfc,0xc6,0x4,0xf2,0xdc,0xf5,0xf3,0xf1,0xd8,0x3,0xff,0xfb,0x0,0x6,0xf3,0x0,0xfb,0x7,0xc,0x6,0xd,0xf7,0x24,0xf6,0x17,0x12,0x0,0x3,0xa,0xf2,0x8,0xfc,0x1,0xdc,0xff,0x25,0xf9,0x5,0x5,0xf6,0xe2,0xe4,0x4,0xfb,0x0,0x15,0x30,0x2,0x24,0xf0,0xc,0x23,0x22,0xd6,0xfb,0xe,0x19,0xe,0x1,0x4,0x1,0xd7,0xe8,0x4,0x2,0xa,0x1,0xf9,0xfa,0x2,0x0,0x9,0xa,0xed,0xfb,0x0,0xfe,0xfd,0xe9,0x5,0xf5,0xfb,0x4,0xe,0xc,0x1,0x0,0x14,0xfb,0x6,0xfc,0xfd,0xf3,0x1b,0x8,0xfd,0x0,0x15,0xff,0xd,0xe6,0x5,0x3,0x6,0xcb,0xfe,0xfc,0xff,0xff,0xf1,0xf8,0x3,0xfb,0xf5,0x8,0xf,0xa,0x12,0x7,0x28,0x3,0xfd,0x0,0x1,0x4,0x8,0xfe,0xfe,0x0,0x13,0xfe,0xee,0x9,0x3,0xc,0x8,0xfd,0xf7,0xff,0x2,0x1,0x0,0xdc,0x2,0x0,0xfa,0x7,0xb,0x17,0x1c,0x1b,0x2,0xb,0xfd,0xfb,0xfe,0x8,0xf0,0xf7,0xff,0xfc,0xf0,0xfe,0x2f,0x34,0xa,0x2,0x16,0xf6,0xc3,0x4,0xfd,0xfc,0x15,0xc,0xfe,0x1c,0xea,0xf,0xe5,0xf6,0xee,0xd,0x2c,0x14,0x5,0x2,0x0,0x32,0xcd,0x7,0x4,0xff,0x4,0x1,0x53,0x35,0xc,0x3f,0xe,0xfb,0xe2,0x3,0x0,0xfc,0x23,0x42,0x5,0x2b,0xd1,0xfc,0xf8,0x11,0xec,0x8,0xf9,0x11,0xf4,0xfc,0xfe,0xa,0xf6,0x5,0x2,0xfd,0xe,0x5,0x2c,0x19,0xfc,0xe0,0xfe,0x4,0xb,0xfb,0xfe,0x0,0x8,0xfe,0x4,0x19,0xff,0xed,0xf5,0x7,0xed,0xfd,0xbd,0x4,0x19,0xfd,0xfe,0xef,0x1e,0x17,0xff,0x0,0xd,0xf,0xd5,0x16,0xfe,0xf2,0x2,0x24,0x22,0xfe,0x3,0x0,0xea,0xf5,0xfd,0xd,0xf7,0xfe,0xf0,0xf1,0xf1,0xf0,0xcc,0xe3,0xd7,0xfe,0xfc,0xdb,0x42,0xce,0x1,0xff,0x15,0x11,0xea,0x0,0x0,0xdd,0x15,0x9,0xd,0x4,0x1,0xfe,0xe1,0xf8,0x1,0x9,0xb,0x13,0xf7,0x8,0xf,0x0,0xee,0x8,0xfb,0xfe,0xfe,0x26,0x45,0xf9,0x1,0xfd,0xe9,0x10,0x7,0xf0,0x4,0xee,0x18,0x4,0x1e,0x1,0xfd,0xfc,0xea,0xef,0x4,0xeb,0xf7,0x23,0xa,0x7,0xfc,0x0,0x8,0x13,0x9,0x1,0xfd,0xf6,0x41,0xc,0x1,0xff,0xc3,0xfe,0xf3,0x5,0x2,0x1a,0x11,0xf,0xf8,0xfc,0xfb,0xfd,0xe3,0x8,0x7,0xed,0xf8,0x20,0xd6,0x12,0xe9,0xea,0x9,0xfd,0xeb,0x1,0xfe,0xea,0xf3,0x3d,0x3,0xff,0x25,0xfb,0x4,0xef,0xff,0xc,0xe8,0x12,0xef,0x4,0xff,0x1,0xfa,0x15,0x3,0x28,0x1,0xfa,0x1,0xa,0x6,0xca,0xe9,0xfb,0xf3,0xfd,0xff,0xdd,0x3,0xf7,0x2,0xfe,0x0,0xd,0xf4,0x9,0xfe,0xa,0xec,0x19,0x1f,0x4,0xff,0x0,0x5,0x20,0xff,0x1a,0xf4,0xf7,0x10,0x15,0x20,0xf6,0xd9,0xf2,0x1,0x2,0x2,0xf3,0x6,0xdf,0x2,0x2,0xe5,0x1,0x7,0xe2,0xf6,0xf9,0x1,0xe3,0x1b,0x0,0x2,0x0,0x7,0x1e,0x8,0x35,0x14,0x16,0xf,0x3,0xef,0xd0,0x1,0xd,0xe5,0x1,0xfe,0xfd,0x18,0x2,0xfd,0x1,0xe6,0x4,0xf9,0xfd,0x6,0x6,0x6,0xfa,0x6,0x0,0xfc,0xff,0x6,0x16,0x8,0x21,0x2c,0x2f,0xe8,0x18,0xce,0xf3,0x1b,0xd3,0xee,0xfc,0x1,0x1a,0xec,0xf,0xfe,0xfd,0xe4,0xfd,0x3,0x22,0x8,0xfc,0x14,0xb,0xe0,0x1,0x1,0xfd,0xd7,0x1f,0x0,0xec,0x17,0x2,0xc1,0x1c,0xf6,0xe1,0x7,0xef,0xe8,0x3,0x1,0x0,0xc6,0x1,0x2,0x1,0x7,0x7,0xed,0xe3,0x2,0x28,0xf8,0x0,0xfd,0x4,0x5,0x1,0xfd,0x9,0x4,0x18,0x14,0xd8,0x9,0x1c,0xa,0xd5,0xcb,0xfa,0x0,0x2,0x3,0xe1,0x3,0x33,0x6,0x2,0x5,0xfc,0xd4,0xf3,0xfc,0xe7,0x4,0xd8,0x18,0xff,0x3,0x2,0xb9,0xe3,0x4,0xf5,0xf9,0xa,0x15,0x9,0x18,0xf2,0xe,0x1c,0x4,0x0,0x0,0xca,0xf7,0x0,0xfe,0x0,0xf9,0xfd,0x1,0xeb,0xf5,0xd8,0x3,0xa,0x19,0xfb,0xfc,0x0,0xf0,0xb4,0x2,0xdc,0x1c,0x1b,0x18,0xf1,0x20,0xc8,0x42,0xe1,0xfb,0xfe,0x4,0x9,0xee,0xf2,0x1,0xfd,0x1c,0x3,0x10,0x10,0xff,0xfb,0x0,0x1,0xfb,0x3,0xfe,0x0,0x4,0x1a,0xf6,0xe,0xb,0xf,0xe2,0xe7,0xc4,0xda,0x20,0xa3,0xd0,0x0,0x4,0x46,0xeb,0xe4,0x2,0xfe,0x22,0xfd,0xf6,0x14,0xd,0x21,0xbf,0x5,0x2,0xfd,0x0,0x0,0xd4,0x1b,0xfb,0xf7,0xf3,0xcb,0xeb,0x11,0xf8,0x8,0x3,0xf,0x1a,0x1,0x1,0xf0,0xec,0x5,0x1,0x0,0x10,0x3,0x2,0xf2,0x7,0xf9,0xe4,0xdc,0xc,0x2,0x5,0xfe,0xce,0x8d,0x4,0xf0,0x1,0xbf,0x11,0x2f,0x3,0xf4,0xf0,0xed,0xed,0x5,0x3,0xe0,0x39,0xff,0xfe,0x3,0x3,0xf6,0xdd,0xdd,0x8,0xd2,0x6,0xc6,0x21,0x1,0xfd,0x1,0xe9,0xb7,0x1,0xe1,0x9,0x21,0x4,0x10,0xe9,0x5,0xf2,0xec,0xcd,0x1,0xfd,0xdf,0x24,0x1a,0x0,0x5,0x8,0x8,0xce,0x1,0x5,0xdd,0xde,0x10,0xf8,0x5,0xfc,0x2,0x5,0xf0,0xf8,0xe0,0xa,0x24,0x18,0xd,0x34,0xe9,0x30,0x0,0xf2,0x0,0x1,0xf5,0xf1,0xd8,0xfe,0xfb,0x1d,0xfb,0xfc,0x12,0xc,0xed,0xd8,0x1c,0x8,0x4,0xfc,0xfd,0x8,0x1c,0x4,0xf9,0x8,0xd9,0xe,0xef,0x9,0xfe,0xeb,0x29,0xea,0x5,0x0,0xe,0x21,0xe5,0x2,0x4,0xc,0xfd,0xf1,0xbf,0x0,0xf4,0xd0,0xf7,0x8,0x3,0x2,0x0,0xeb,0xd3,0x8,0xa,0xdc,0x3,0x22,0xeb,0xb,0xc,0xef,0xc5,0xeb,0xff,0x4,0x0,0x8,0x4,0x3,0x5,0x2,0xfb,0x11,0xf2,0xf9,0x12,0x7,0xe5,0xf9,0xfe,0x6,0x1,0xf0,0xbb,0xff,0xfc,0x15,0xc,0xdf,0x22,0xf,0x9,0xf7,0xea,0xe9,0xfd,0xfe,0xfc,0x22,0xf6,0xff,0x3,0xd,0xfd,0xf9,0xf0,0xf4,0xe6,0xf4,0xed,0xfa,0xff,0x2,0x0,0xfe,0xb6,0x5,0xfe,0x1d,0x5,0x9,0x19,0x40,0x2,0xa,0x15,0x7,0x0,0x1,0x25,0xf6,0xfb,0xfe,0xff,0x10,0x2,0x21,0xf9,0xf4,0xf0,0xec,0x17,0xfd,0x0,0xff,0x0,0x0,0xf1,0x7,0xf2,0x5,0x3,0x13,0x11,0x16,0xe8,0xcf,0x9,0x25,0x0,0xfd,0x3,0xd,0xd0,0xfd,0xff,0xfb,0xfc,0xa,0x7,0xfd,0x5,0xd,0xf3,0xc,0x0,0x5,0xfc,0xf5,0xf5,0x1,0xe8,0x26,0x19,0x11,0xed,0xe8,0xe0,0xd9,0x1,0xeb,0x3,0x0,0xfd,0x1,0xf7,0x5,0x3,0xeb,0x0,0xdf,0x9,0xfd,0xd5,0xc,0xf3,0xf0,0xfa,0x2,0xfd,0xdf,0xda,0x1,0xc3,0x46,0xf,0xfc,0xd7,0xf1,0xf2,0xda,0xf9,0xb,0xfc,0xff,0xf8,0xfd,0x17,0x0,0x1,0xf2,0xfe,0xff,0xe,0xfd,0x17,0x1c,0x19,0xe8,0xff,0x0,0x0,0xf3,0x11,0xfe,0x1c,0xf,0xc,0xf3,0xa,0xe5,0xd4,0xc7,0xff,0x3,0x4,0x0,0xdd,0xa,0x1c,0xfe,0xfe,0x9,0x7,0xd7,0x2,0xfb,0xf4,0x22,0xf4,0xf4,0x3,0xff,0xff,0xfc,0x3,0x0,0xfc,0x7,0x6,0xf3,0xf8,0xc8,0xfc,0xef,0xdd,0x1a,0x9,0x1,0xe3,0xe9,0xc,0x3,0x3,0x3,0xfe,0xeb,0x8,0x1,0x14,0x2,0x4,0x2,0xff,0xfe,0xff,0x1,0x3,0x4,0xff,0xfa,0x8,0xfe,0x8,0x8,0x1b,0x0,0xe2,0xf,0xff,0x3,0xf0,0xde,0x9,0x2,0xfd,0x18,0x2,0x10,0x14,0xfc,0xe9,0x34,0x6,0xe9,0xfe,0xff,0x0,0xf2,0x10,0x1,0xf1,0x7,0xdf,0x2a,0x15,0xf6,0xf0,0xf3,0xfe,0xf1,0x0,0x0,0xee,0xb3,0x8,0x1,0xfd,0xfa,0x5,0x9,0x12,0xfe,0x2,0x10,0xff,0xe,0x1,0x1,0xfc,0xdc,0x6,0xfe,0xfc,0xa,0xcd,0x17,0x1e,0x6,0x14,0xc4,0xfc,0xe8,0x0,0x0,0x18,0x1a,0xd9,0x0,0x4,0xfa,0x0,0xd7,0xca,0x1,0xf7,0xc8,0xc2,0xcb,0x2,0x0,0xfd,0xfb,0x0,0xff,0xf2,0x9,0x10,0xf7,0x7,0xc,0xf5,0xdc,0x9,0xed,0x4,0x3,0xbb,0x4,0x6,0x4,0x3,0xf1,0x1,0xb5,0xc9,0x1,0xf2,0xe6,0xff,0x0,0x2,0x4,0x2,0xeb,0xfa,0xfe,0xef,0xf,0x8,0x4,0x19,0x20,0x1c,0xfa,0xd4,0xd6,0x3,0x3,0x1,0xf3,0xdd,0x3,0x5,0xfb,0xfa,0x2,0xe3,0xfa,0xfc,0x3,0x13,0x3,0x0,0x2,0xff,0xe9,0x2,0xb,0x3,0x2,0xeb,0x4,0xf,0xb,0xfd,0x14,0xdc,0xdf,0x2,0x3,0xf7,0xca,0x7,0x2,0x3,0x25,0x0,0x9,0xdc,0xfc,0x0,0x1,0x9,0xf7,0x3,0x2,0x0,0x5,0xe9,0x9,0x11,0xf6,0xdc,0x8,0xa,0x15,0x3,0x0,0xee,0x1,0xff,0xfc,0x17,0xef,0xe,0x2,0x1,0x29,0xfd,0xe9,0xce,0xc,0xf,0xd1,0xc,0xf4,0x0,0xfd,0x1,0xd6,0xcc,0xa,0x2,0xf4,0xc9,0x1d,0xb,0x8,0x1a,0xeb,0xc,0xba,0xff,0x1,0xfa,0xee,0x19,0x3,0x3,0x6,0x4,0xc,0xde,0x2,0xb,0xc9,0xc5,0x5,0x1,0x5,0x0,0x14,0xe2,0xff,0xfe,0xf,0x3,0x32,0x24,0xfe,0x5,0x8,0xce,0xc7,0x3,0x2,0x5,0xa,0x4,0x3,0x4,0x2,0x5,0x1a,0xf8,0x0,0xff,0xf5,0xf2,0x2b,0xfe,0x3,0xfd,0x1a,0xba,0x1,0xd3,0x4,0xcc,0x18,0x1,0x15,0xfe,0xf0,0xfc,0xf4,0x3,0x4,0x21,0xe,0xe5,0x0,0x1,0xe0,0x7,0x19,0xe4,0xfc,0x10,0x1c,0x3,0xb,0x0,0xfb,0x0,0x6,0xdc,0x4,0xd,0xdf,0x7,0xc4,0x3,0x2,0xeb,0x37,0xe4,0xfd,0x2,0x3,0x34,0xfd,0xf1,0x3,0x1,0x22,0x5,0x18,0xe0,0x2,0xe7,0x11,0xee,0x15,0x1,0x2,0xfd,0xd0,0xf8,0xfc,0xe3,0x0,0x6,0x4,0x13,0xd,0xda,0x27,0xfb,0xee,0x4,0x2,0x2e,0xb,0xcd,0x2,0x3,0x2b,0x4,0xe4,0xb0,0xfb,0xd1,0xb3,0xf2,0xf,0x5,0x4,0x2,0xe4,0xb9,0x1,0x16,0xe,0xef,0x1e,0x2,0x5,0xc,0xff,0xe3,0xe6,0x2,0x3,0x12,0xe2,0x1b,0x1,0x4,0xfd,0x3,0xfd,0xe7,0x4,0x11,0xde,0xe3,0x45,0xfb,0x4,0xfe,0x1,0xcf,0x4,0xf5,0x1c,0xbd,0x27,0x1b,0xf1,0x4,0x1d,0xed,0xfb,0x0,0x1,0x13,0xec,0x3,0x3,0x2,0x5,0xfe,0x1d,0x12,0xff,0x25,0xfc,0xfe,0x37,0xff,0x0,0x0,0x1c,0xe4,0x8,0xf0,0xfb,0xa6,0x1,0x7,0xd1,0xe0,0xee,0x1b,0x9,0xff,0x0,0xf5,0x7,0xee,0xfe,0xff,0xd0,0x18,0x2d,0x22,0x9,0x14,0x14,0x7,0xfe,0x5,0xff,0x0,0x13,0xa,0x6,0xff,0xd,0xd6,0xd0,0xce,0xf8,0xec,0x35,0xf3,0xe9,0x5,0x5,0x8,0xf8,0xe8,0x2,0x4,0x0,0xff,0xd6,0xb6,0x5,0xf4,0xc4,0xce,0x0,0xff,0x3,0xfd,0xee,0x2d,0x4,0xee,0x17,0xde,0xa,0xf6,0x10,0xe0,0xed,0xd,0xe4,0xfe,0x0,0xdb,0x15,0xe8,0x3,0x1,0x9,0x4,0xef,0xd1,0xa,0xd9,0xdf,0xc4,0x18,0x3,0x0,0x1,0xfc,0xc6,0x3,0xe,0xd,0x9,0x33,0xe9,0xec,0xb,0xf1,0x8,0x21,0x1,0x1,0xef,0xf6,0xe,0x0,0xfd,0x1,0xfe,0x5,0xf6,0xfc,0x38,0x8,0xf5,0xed,0x0,0xfd,0x1,0xd,0xf1,0x7,0xec,0x6,0xee,0xf4,0x23,0xe5,0xeb,0xe3,0x6,0x1,0x4,0x2,0xfc,0xb1,0xee,0xfd,0x3,0xf9,0xff,0x13,0xe,0xff,0xa,0x16,0xe4,0x11,0xfd,0xfc,0x1,0x14,0xf4,0x2,0xf6,0xf9,0xcc,0x1,0x1,0xe,0xc7,0x1e,0xf7,0xf9,0xfe,0x5,0xf7,0xe,0xf9,0xff,0xff,0x1c,0xff,0xf3,0xfc,0x2,0x14,0x13,0x1d,0xff,0xfe,0x2,0x0,0xe,0xe,0xfd,0x5,0xfc,0xec,0xa,0xcd,0xf3,0xf,0x2c,0xf9,0xf7,0xfc,0x2,0x11,0x0,0xe6,0x0,0xfe,0x1e,0x0,0xf2,0xf4,0xff,0xe9,0xef,0xfe,0xf7,0x3,0x4,0x1,0xf4,0x8,0xa,0xe8,0x8,0xed,0xf2,0xdb,0xd7,0x1b,0x39,0x3,0xff,0x3,0x3,0x24,0xf9,0x17,0xff,0x3,0x1b,0x8,0x3,0xed,0x6,0xd4,0x7,0xc4,0xfa,0x3,0xff,0x2,0xdb,0x26,0xfe,0xe2,0xf0,0x5,0xfa,0x25,0xf1,0xfe,0x20,0x17,0xf5,0x0,0xfc,0xe,0xa,0xe,0x1,0xff,0xfe,0x8,0x1a,0x17,0xff,0xfc,0x11,0x3,0x2d,0xfe,0x0,0x2,0xf,0xff,0x2,0x4,0x8,0xf5,0x8,0xd,0x25,0x18,0x1,0x1c,0x10,0xfb,0xfc,0x7,0xe6,0x3,0x0,0xfc,0xe7,0x6,0x20,0x2b,0x1,0xfa,0x20,0x1d,0xe5,0x0,0x4,0xfe,0xe4,0x14,0x0,0xe8,0x8,0xed,0x4,0xc,0xe7,0x1a,0xfa,0x2,0xef,0x3,0xff,0x31,0xe9,0x9,0xfd,0xff,0xa,0x0,0xf7,0x1,0x0,0x1b,0x37,0x4,0xf4,0x1,0x1,0xfd,0xfb,0xf5,0x4,0xfe,0x1,0xe3,0xeb,0x2,0xea,0xf,0x2e,0xfc,0x9,0x2,0x2,0x1b,0xf3,0xf4,0x5,0x5,0xfb,0xf9,0xe,0xff,0xfd,0x17,0xfc,0x10,0x7,0xfb,0xfe,0x1,0xf7,0x8,0x5,0xe7,0xf7,0xa,0x0,0xf5,0xe,0x11,0x6,0xfb,0x1,0xfe,0xfe,0x28,0xe7,0xfc,0xff,0x3,0xee,0xfb,0xf,0xf7,0x0,0xf0,0xde,0xed,0xea,0xff,0x1,0xfe,0xfc,0xff,0x2,0x6,0xf,0xfb,0xea,0xfc,0x9,0xe2,0x1b,0x8,0xfa,0xfc,0x0,0x13,0xb,0xfe,0xff,0x0,0x4,0xf6,0x12,0x15,0x0,0x5,0x16,0xf7,0x13,0x0,0x0,0xff,0x5,0xfa,0xf8,0x1a,0x9,0xfb,0xf9,0x1f,0x18,0xd0,0xfe,0x0,0x4,0x4,0x3,0xe7,0xf,0xcb,0xfe,0x1,0xeb,0x2,0x1b,0xf,0x8,0x0,0x2a,0xf3,0xdd,0xfc,0x1,0x0,0x8,0xf9,0x4,0xf4,0x1,0xea,0x2,0x7,0xed,0xe0,0xf7,0x17,0xfb,0x3,0xfd,0xf7,0x19,0x2,0xff,0x1,0x5,0x12,0xf4,0xf8,0xfa,0x1a,0x16,0xe7,0xc7,0x1,0x5,0x0,0xc,0x5,0xd,0x13,0x16,0x21,0xf1,0xfc,0xf8,0xbf,0x1a,0xfa,0xe9,0x0,0xff,0xff,0x17,0x12,0x1,0x3,0xe9,0x3,0xf6,0x10,0xf9,0xa,0xf6,0xfb,0x1a,0xfe,0xff,0xfe,0xb,0x5,0x2,0x22,0xd,0xd9,0xeb,0x4,0x9,0x0,0xee,0xea,0xd3,0x0,0xfd,0x12,0x9,0xe5,0xfd,0x2,0xe,0x1,0xff,0xfa,0x0,0xf8,0xf8,0x4,0x1c,0x0,0xff,0xff,0xcb,0xff,0x1,0xdb,0x7,0xfb,0xb,0xfb,0x8,0xd6,0xfe,0xfe,0x6,0x3,0x0,0x1d,0x1a,0x7,0x2,0x1,0xd4,0x3,0xd,0x1,0x7,0x18,0xf1,0x0,0xfb,0x1,0xff,0x0,0xd2,0x0,0x8,0xf1,0xb,0x17,0xdf,0xeb,0xe0,0xb7,0xfb,0x2,0x26,0xfd,0x1,0xe5,0x11,0xd4,0xfe,0xfc,0xe5,0x1,0xed,0xf,0xf8,0xce,0xfe,0x26,0xf5,0xfd,0xfc,0x3,0xc8,0x18,0x5,0x30,0xfd,0x10,0xf4,0xbb,0xf7,0xc2,0xdc,0xef,0xf8,0x0,0x5,0xeb,0xf2,0x11,0x0,0x1,0x1b,0xff,0xe3,0xa,0xfb,0xe2,0x9,0x23,0xdb,0x1,0x0,0x0,0xa9,0x2a,0xfc,0xed,0x14,0x2f,0x1c,0xf4,0xf1,0xe6,0xfd,0xb8,0x20,0x0,0x0,0x20,0xe,0xea,0xfe,0x0,0x1b,0xc,0xc3,0xfc,0x10,0xde,0x2,0xa,0x1a,0xff,0xff,0x2,0xe5,0xec,0xfc,0xf8,0xfc,0x16,0x3,0xf4,0x1,0xda,0x3,0xdb,0xda,0xfb,0xff,0xbe,0xfe,0xcb,0xfc,0xff,0xe6,0xfa,0xdb,0xde,0x5,0xea,0xd0,0xea,0x4,0x2,0xfc,0x1,0x1,0xd,0x4,0x1f,0x16,0xf8,0xf9,0x1b,0xed,0xe2,0x8,0x11,0xd,0x0,0xff,0xe8,0x25,0xd2,0x1,0x2,0xeb,0xfe,0x3,0x13,0xfc,0xe3,0x27,0xe0,0xf4,0xfe,0xfe,0x2,0xcc,0xa,0xf9,0x7,0xc,0x36,0xe7,0xf1,0x25,0xf0,0xfd,0xee,0x16,0xfd,0xfc,0xcb,0x15,0xeb,0xff,0xff,0xf9,0xfc,0xea,0x4,0x1,0xf3,0x4,0xd3,0xdf,0xff,0xfe,0x0,0xe9,0x36,0x4,0xf2,0xa,0x24,0x13,0xf9,0xb,0xd5,0xef,0xe0,0xd0,0x0,0x5,0xe6,0x3d,0xdb,0xfb,0xff,0xff,0xfc,0xdc,0xd7,0xfa,0xff,0xce,0xfc,0x8,0x1,0x3,0x3,0xe9,0x4,0x4,0x13,0x13,0x17,0x4,0x7,0x12,0x11,0xdd,0xe5,0xb,0xfd,0xfc,0xde,0x8,0xe1,0x1,0x3,0xed,0x1,0x11,0xf6,0xfb,0x1,0xdd,0x17,0xb,0x1,0xfc,0xfe,0xa,0x1,0x5,0x11,0x1,0x5,0x17,0x1b,0xfd,0xef,0xfd,0xb,0x25,0xff,0xff,0x8,0xfe,0xf7,0xfd,0x0,0xda,0xf7,0xd,0x11,0xfb,0x22,0x1,0xdf,0xf7,0xff,0x1,0xfd,0x19,0x3b,0xfd,0x2b,0x17,0xf6,0x2,0xee,0xe8,0xf5,0xfd,0x8,0xed,0xfd,0xfe,0x4,0xf2,0xf,0xfe,0xfd,0x0,0xff,0xea,0xf4,0xc,0xfc,0xfc,0xe,0xfd,0xfd,0xfe,0x0,0xf6,0x2,0x0,0xd4,0x11,0x20,0xc,0x13,0xfa,0xf3,0xfd,0x7,0xa,0x7,0xfe,0x0,0x3d,0x3,0x0,0x0,0x6,0xf7,0x10,0x8,0xfd,0xf8,0xc,0xc3,0xb,0xff,0xfe,0x0,0xf5,0xe4,0xb,0xde,0x2,0xf,0x1b,0xf5,0x10,0xee,0x2b,0xe6,0xf2,0xfd,0xfd,0xe4,0x11,0xf3,0xfe,0x1,0x19,0xff,0xef,0xe3,0x0,0x1c,0x12,0xcb,0x24,0xfd,0x0,0x1,0xf0,0xca,0x6,0x4,0x2,0xff,0x12,0x1a,0x1c,0xf,0xa,0xce,0xef,0xfe,0xfd,0xf7,0xde,0xf7,0xff,0x3,0xff,0x0,0x12,0x25,0x4,0x16,0x18,0xc3,0xee,0xfd,0xfc,0x1,0x16,0x9,0x1,0x1b,0x13,0xf5,0xf0,0x6,0xe0,0x1,0x5,0xec,0x14,0xff,0xff,0x9,0xe9,0xda,0x0,0x0,0x4,0x1,0x26,0x3a,0x2,0x1d,0xf0,0xdd,0xdf,0xfe,0xff,0x0,0x34,0xb,0x4,0x29,0x17,0x13,0xf7,0xd9,0xdf,0x2,0x1a,0x13,0xde,0x3,0x1,0x1,0x1d,0xd4,0x2,0xfb,0xf,0xe,0x7,0xe6,0x3,0xfc,0xa,0xd9,0xe2,0x2,0x2,0x0,0x2,0xf7,0xf9,0x13,0xf8,0x7,0x24,0x20,0x24,0xf4,0xfa,0x6,0xfe,0xfe,0x3,0x9,0x26,0xcf,0xff,0xfe,0xef,0x5,0xf,0xd6,0xff,0x21,0x17,0xc2,0xd2,0x1,0x3,0xff,0x1b,0xf6,0x6,0x12,0x4,0x8,0xf9,0x1b,0xcf,0x10,0x18,0xed,0x2e,0xfb,0x4,0x18,0xf8,0xdb,0x0,0xff,0xc8,0xd,0xf3,0xf9,0xff,0xd,0xd9,0xe9,0xb7,0x5,0xfe,0x2,0x13,0x10,0x2,0xe,0xfd,0xd,0xf3,0x20,0xaf,0xd7,0xfc,0xf6,0xd,0x0,0xff,0x2,0xd9,0xf6,0x2,0x0,0xde,0x0,0x4,0xd,0x0,0xfe,0x7,0x5,0xe0,0x4,0x3,0xff,0x21,0xff,0x3,0x9,0xfc,0xf2,0xb2,0x16,0xc5,0xc9,0x16,0xfc,0xd,0x3,0x2,0x0,0xf8,0x16,0x4,0x0,0xb,0xfc,0xfb,0xfc,0x1,0xf1,0x23,0xf2,0xf7,0xff,0xfc,0x0,0xfc,0xfd,0x4,0x10,0xe,0x3,0xe9,0x8,0x0,0x14,0x1,0x8,0x8,0x0,0x5,0xf6,0x15,0xc5,0x2,0x2,0x0,0xfc,0xe9,0x9,0xfc,0x1,0xb,0xdf,0xeb,0x2,0x4,0xfc,0xf0,0xdb,0xfc,0xe7,0x4,0x36,0xf,0xff,0xa,0xa,0xfb,0x4,0x10,0x1,0xff,0xfb,0xd6,0x2e,0xfb,0x2,0x6,0x4,0xf1,0xf1,0x9,0x15,0xd8,0xdb,0x99,0x3,0xff,0x3,0x11,0xf6,0xf7,0xf7,0xff,0x8,0x0,0x1,0xa,0x18,0xfe,0xfd,0xc,0x2,0x0,0xf0,0xcc,0x19,0xfd,0xfe,0xf1,0x8,0xf7,0xe7,0x3,0x9,0xe9,0xf5,0xb2,0xff,0xfe,0x3,0xf8,0x1,0xf8,0xd,0x6,0xde,0xe4,0xff,0xa4,0x1e,0xdf,0xff,0x2,0x0,0x1,0xea,0xee,0x1,0xfc,0xff,0xd8,0x0,0xe0,0xe9,0x5,0x9,0x3,0xf3,0xfe,0xfd,0x1,0xfb,0x10,0xe3,0x5,0x10,0xc,0xed,0xaf,0xf6,0xe8,0x23,0x9,0xfa,0xa,0x2,0xfe,0xf6,0xf1,0x16,0x0,0x4,0xf7,0x3,0xe9,0xf6,0x5,0xf9,0xf2,0xc,0xf9,0xfe,0xff,0x4,0x13,0xe0,0x3,0xf5,0xe6,0x4,0xbd,0xf8,0xa,0x10,0x7,0xf8,0xe4,0x0,0x3,0x10,0xa,0x30,0x0,0x2,0xf6,0xf,0xea,0xf6,0x7,0xe9,0x0,0x12,0xff,0xfc,0x0,0xff,0x12,0xc1,0xff,0xe6,0xf7,0x27,0xf2,0xf6,0xf1,0x1f,0x27,0x1b,0xfd,0x4,0x3,0x18,0xf1,0x10,0xfb,0x2,0x12,0xfd,0xc,0x9,0xfe,0x1b,0xeb,0xe,0xf7,0x0,0xff,0x0,0x13,0xe9,0xfd,0xfd,0x1,0xfb,0xde,0xee,0xf4,0x13,0x36,0x9,0x1,0x2,0xfd,0x1d,0xf2,0xf,0xfd,0x2,0x8,0xfd,0x2a,0xfb,0xfa,0xf,0xf9,0xe1,0xbf,0xfc,0xf6,0xfc,0x7,0xeb,0x0,0xff,0x9,0xbb,0xd8,0xe,0xb2,0x1d,0xc0,0x2f,0xfc,0x1,0xff,0xe2,0x1f,0xa,0x1,0x5,0xf3,0x7,0x18,0xf9,0xfb,0x6,0xe9,0xe4,0xd,0xfd,0x0,0xfd,0xfe,0xe4,0xb,0xf0,0xfd,0x16,0xd0,0x24,0x21,0xf6,0x13,0x2e,0x28,0x1,0xfe,0xf0,0xf9,0x20,0x0,0x6,0xed,0x5,0x2a,0x4,0xf,0x7,0x1a,0xeb,0x1b,0xfe,0x1,0x3,0xe7,0xed,0x1,0xd5,0xfc,0x17,0xf,0xe1,0x4,0xe4,0xf5,0xd6,0xe3,0x0,0xfc,0x3,0x3,0xc,0x2,0xff,0xdc,0xfd,0x6,0x8,0x3,0x33,0xf8,0x3a,0x2c,0x3,0x1,0x3,0x26,0xb,0xfc,0x2e,0xf0,0xe7,0xf7,0xe6,0x20,0x8,0xa,0x5,0xf,0x2,0x2,0x23,0xe4,0xf7,0x3,0xfe,0xde,0x2,0x9,0xf,0x7,0xf9,0xe1,0x28,0xfd,0x0,0xfd,0x4,0x12,0x2,0xff,0xe8,0x2,0xdd,0xfd,0xc8,0xee,0x5,0xa,0x28,0x19,0xfd,0x0,0x13,0xfa,0xf2,0xfd,0x2,0xed,0xa,0x1,0x4,0x4,0xfa,0x3,0x12,0x0,0x1,0x0,0xff,0x3,0xf0,0xfd,0xf6,0xe,0xfb,0xd6,0x2,0xfb,0x5,0x24,0x16,0x2,0x3,0xfd,0x20,0xf4,0x1a,0xff,0xfe,0xf3,0x3,0xe,0x4,0xfc,0x8,0xf6,0xe,0x2,0xfe,0x2,0x1,0x5,0xe2,0xfb,0x16,0xf8,0xec,0xfb,0xd,0xc,0xf7,0x1a,0xcf,0xd1,0xff,0xff,0x12,0x5,0x9,0xfc,0xfe,0xee,0xfd,0xed,0xed,0x5,0xfc,0xff,0x6,0xf9,0x1,0x1,0x1,0xcc,0xe2,0xf6,0xd6,0xa,0xed,0xe,0xfc,0xa,0xfc,0x0,0xe7,0xfd,0x4,0x0,0xfa,0xc,0x11,0xfe,0x3,0xa,0x2,0x3,0x8,0xf9,0xf1,0x6,0x2e,0x2e,0x5,0x2,0xfe,0x18,0x17,0xff,0x28,0xfe,0xf3,0x4,0xfd,0x1a,0x15,0xf2,0x13,0xfe,0xff,0xfd,0xf3,0xfd,0xfb,0xfe,0xff,0xfe,0x2,0x9,0x8,0x9,0xb,0x12,0x33,0xc,0x5,0xfd,0x3,0x9,0x3d,0x1,0x2,0xf6,0x0,0xf7,0xe8,0x8,0xfc,0xd5,0xfb,0x3,0xfe,0xfd,0xf7,0xeb,0xd8,0x4,0x0,0xf2,0x0,0xfb,0x1f,0xfd,0x3,0x11,0x36,0x7,0x2,0xfe,0x2,0xfd,0x22,0xfd,0x2,0xfa,0xfd,0xff,0x1,0xcd,0x19,0xec,0xfd,0xde,0x0,0xff,0xf7,0x0,0xf1,0xfe,0xff,0xfb,0x0,0xbd,0xe2,0xf9,0xf3,0xf4,0x1e,0xb,0x4,0x0,0x3,0xe3,0xe,0x1,0xd1,0x4,0x6,0xff,0xc,0x14,0x22,0xd6,0xf9,0xe1,0x5,0xfd,0xf6,0xf6,0xe4,0xfe,0x5,0x12,0x5,0xc2,0xaf,0xfa,0xc6,0xcf,0x8,0x5,0x2,0x1,0x4,0xd3,0xdd,0x3,0xbf,0xf,0xf5,0x1b,0x23,0x16,0xdc,0xea,0x7,0xfa,0xff,0x2,0xfa,0xc,0xef,0xfd,0xfb,0xea,0x5,0x11,0xfd,0x1,0xf8,0x12,0xf9,0xfc,0xfd,0x4,0x0,0xea,0xd7,0x0,0xd,0xb,0xe4,0x5,0xed,0xf1,0xeb,0xad,0xa,0x8,0x5,0xfd,0xf9,0x18,0x81,0xff,0xff,0xf5,0x2,0xd6,0xab,0xff,0x12,0x1b,0xb3,0x10,0x2,0x3,0x3,0xc,0xe8,0x1,0xff,0x10,0xfd,0xf9,0xdb,0xf5,0xd9,0xb8,0xe5,0x11,0xff,0x3,0xf0,0x69,0xcd,0xff,0x2,0xfb,0x8,0xf1,0xf0,0x0,0xdc,0xd,0xf6,0x1d,0xff,0x2,0x0,0xe3,0xf6,0xf6,0xe2,0x13,0x42,0xfd,0xe5,0xf8,0xe6,0xde,0xdc,0x3c,0xfc,0xff,0xfe,0x2a,0xf8,0xfe,0x4,0xe3,0x2,0xe0,0x11,0xc,0x2,0xd,0xf1,0x0,0xfb,0x0,0x4,0xff,0xf6,0xfa,0x7,0x1c,0x27,0x6,0xf,0x4,0x5,0x13,0xe7,0xf,0xfc,0xfd,0xfe,0x38,0xe3,0xfe,0x0,0x7,0xfe,0x6,0x15,0x6,0x6,0x29,0xea,0x7,0x3,0xfc,0x0,0xc7,0xf7,0xfa,0x0,0xf,0x25,0x9a,0xfa,0xfd,0xf3,0xba,0xf7,0xe6,0x6,0xff,0xdd,0x9,0x17,0x1,0xfd,0xef,0xff,0xcc,0xca,0xff,0xe0,0x1a,0xc7,0xfb,0x1,0xfd,0xfc,0xfe,0xe8,0x4,0xf3,0x11,0x10,0x2,0xd0,0xb,0x15,0xe7,0x0,0xbe,0xfd,0x3,0xe1,0xf,0xe6,0x1,0x3,0xfe,0x7,0xe8,0xb0,0xfc,0x9,0xec,0xc0,0xf8,0xfe,0x3,0xfe,0xfb,0x5,0xfc,0xee,0x9,0xff,0xd,0xeb,0xff,0x6,0xe6,0x0,0xd8,0xfd,0xfc,0x3,0x6,0xdb,0xfe,0x5,0xfa,0x4,0xfc,0xd2,0xfc,0x1b,0x9,0xba,0xe2,0x2,0xfb,0x3,0xe1,0xf0,0x3,0xb,0x8,0x7,0xe,0xed,0xeb,0xdb,0xcb,0xe3,0xe7,0x3,0x0,0x0,0x13,0x11,0xfe,0x0,0xcc,0x5,0x10,0xff,0xfe,0x5,0xec,0x9,0x2,0x1,0x1,0xfd,0xcd,0xfc,0xf9,0x9,0x1e,0xfd,0x9,0xe1,0xef,0xe3,0x1e,0xc4,0xef,0xfe,0xfb,0xea,0xe,0x1,0xff,0xfb,0xce,0xf,0xe8,0x1a,0xff,0x6,0x6,0xa,0xfe,0x2,0x0,0x2,0xba,0x10,0xf1,0x1e,0x23,0x8,0x84,0xfe,0x0,0x19,0xff,0xe8,0xc5,0x4,0x2,0x4,0xd4,0x19,0x4,0x1,0x10,0x1,0xf4,0xc5,0xfe,0xf5,0xca,0xe2,0xe9,0x3,0x3,0xff,0x10,0xc8,0xfc,0x7,0x5,0xf6,0xb,0xfe,0x1a,0x0,0xfb,0xb4,0xbe,0x0,0x2,0xd,0x1a,0x5,0xfd,0x1,0x18,0x5,0x16,0xdc,0x4,0xe6,0xda,0xd5,0xa,0x0,0xfe,0x1,0xd,0xc2,0xfb,0xf9,0xe,0xd4,0xf0,0x6,0xb,0x3,0xdb,0xfc,0x0,0x1,0x2,0xe9,0x12,0xd5,0x0,0x4,0x2,0xd,0xf0,0xa,0xfe,0x10,0xe6,0xe3,0xe5,0x2,0x0,0xff,0x12,0xf8,0xff,0x4,0x18,0xd4,0x25,0x12,0xdd,0xea,0xc6,0xe8,0xed,0x4,0xff,0xcd,0x1f,0x7,0x2,0x4,0xd0,0x1,0xbf,0x2,0xfa,0xfa,0xbe,0x15,0x12,0x2,0xfb,0x0,0xf7,0x21,0xa,0xd5,0xb,0x6,0xf0,0x13,0x38,0xee,0xf2,0xf9,0xef,0x4,0x0,0xd5,0xc,0xec,0x3,0xff,0xea,0xff,0xee,0x1b,0xfc,0x10,0xe9,0x9,0x8,0x4,0xff,0x4,0xcf,0x58,0x0,0xf0,0x1c,0x1,0xeb,0x12,0x4,0x26,0xf6,0x94,0xed,0x1,0xfd,0x19,0xd0,0x9,0x0,0x1,0xf3,0x3,0xf,0xd9,0xfb,0xa,0xe4,0xe4,0xf5,0xff,0x0,0x4,0x13,0xa4,0xfb,0xdd,0x1b,0xe6,0x2,0xec,0x1a,0x5,0xff,0xfe,0xf3,0x2,0x2,0x12,0xa9,0xe2,0x0,0xfe,0x1,0x6,0xb,0x3,0xfe,0xf4,0x4,0xcf,0x20,0xff,0xfd,0x2,0x1,0xe4,0x2,0xef,0x5,0xb8,0xea,0x9,0xe,0xe,0x0,0x20,0x1a,0x1,0x1,0xf6,0xfb,0xec,0x2,0x3,0x0,0x0,0xfc,0xec,0xfc,0xff,0x14,0xc2,0xf6,0xff,0x1,0x2,0xfe,0xd0,0x6,0x10,0xb,0xd8,0xf0,0x27,0xe1,0xf2,0x28,0xf3,0x17,0xff,0x2,0xea,0xfe,0xf6,0xfe,0x1,0xf2,0x1,0xe0,0xd7,0xff,0x7,0xd4,0x8,0x22,0x1,0x0,0x2,0xf1,0xcb,0xf6,0x0,0xd,0xfb,0xe1,0x12,0xf,0xd,0xf5,0x3,0xcc,0xfe,0xfd,0xef,0x6,0xe9,0xfe,0xfe,0x3,0x4,0xdc,0xce,0xfc,0xed,0xdf,0xb,0x11,0x3,0x1,0x1,0xbc,0xcf,0xf6,0xe5,0x14,0xfb,0x34,0x3,0x1,0xba,0xe5,0xf0,0xcc,0x1,0x1,0x4,0xde,0x15,0x1,0xfd,0xd0,0xfe,0xed,0xe5,0x1,0xf6,0xb,0x2,0x0,0xff,0x1,0x0,0xf9,0xdc,0xfd,0xe0,0x11,0xdb,0x15,0xcd,0x9,0xde,0xf0,0xec,0x3,0xff,0x0,0xc,0xea,0xd6,0x2,0xff,0xea,0xf2,0xfe,0x7,0xfb,0x2,0x12,0xe4,0xe7,0xfe,0x0,0x1,0xe9,0xac,0xf5,0xde,0xf7,0xbf,0x22,0xde,0x21,0xf4,0xfb,0xf8,0x11,0x1,0xff,0x8,0xe,0xda,0xff,0x2,0x24,0xfa,0xb,0x28,0xf5,0xd,0xc,0xda,0x15,0xfc,0x5,0x0,0xef,0x90,0xfe,0xe2,0x1f,0xfb,0x1a,0xfa,0x20,0x2b,0xfd,0xff,0x4,0xff,0xfd,0xff,0xf2,0xeb,0xff,0x5,0x2c,0xff,0xfb,0x6,0xb,0xf6,0x0,0xde,0xec,0xfc,0x3,0x5,0xb,0xef,0xfa,0xd,0x1f,0xfd,0xfb,0x9,0xe6,0x12,0xfc,0xef,0xd,0xff,0x4,0xd,0xdc,0x15,0x2,0xff,0x25,0x5,0x0,0xf2,0x4,0xdc,0xf0,0xd3,0xdf,0x1,0x3,0xff,0xfc,0x17,0xf9,0xdd,0x1c,0xf8,0x11,0x1a,0x5,0x0,0xed,0x2,0xfc,0x0,0x4,0xf3,0x9,0xe3,0x2,0xff,0x2,0xe,0xf6,0xeb,0x2,0x1e,0xef,0xe4,0xf0,0x4,0x3,0x2,0x8,0xff,0x0,0xff,0xfc,0xf9,0x0,0xf4,0x4,0xd,0x8,0xe5,0x5,0x11,0xfe,0x21,0x5,0xd8,0xfc,0x4,0xea,0x3,0x4,0xdb,0x2,0xa,0xfb,0xd4,0xd9,0x0,0x0,0x0,0x20,0xf3,0xff,0x16,0x13,0xeb,0xfd,0x3,0xf5,0xf2,0x9,0x4,0x8,0xfd,0x0,0xf1,0xd,0xd4,0x0,0x1,0xf6,0x5,0xf8,0xfc,0x0,0x14,0xe6,0xe5,0xfe,0x2,0xfd,0x0,0x10,0xb,0x4,0xe,0x2,0xb,0x9,0xff,0xe0,0xf0,0xec,0xfc,0x1d,0xfd,0x3,0x2,0xf,0xfd,0x5,0x0,0xd7,0xfd,0xef,0xa,0x0,0x2,0xf6,0xe9,0x4,0x4,0x5,0x0,0xfc,0x9,0x8,0xf8,0xf9,0x5,0xfc,0x11,0xdb,0xfa,0x12,0x1c,0xd,0x0,0x2,0x12,0x28,0xfa,0x0,0xff,0x2,0x8,0x1b,0xff,0x6,0xf9,0x7,0xf8,0xfc,0x2,0x1,0x5,0xfe,0x3,0x4,0x4,0xfe,0xa,0xe7,0xff,0xf5,0x27,0x6,0x18,0x6,0xa,0xfb,0xf7,0xf6,0xb,0x2,0x2,0xfe,0x7,0x5,0x1,0x3,0xd,0xd,0xf2,0xf4,0x1,0x5,0xfe,0xed,0xfa,0x6,0xf3,0x6,0x1d,0xfa,0x5,0x1,0x0,0xfc,0x13,0xf9,0x0,0x0,0xfa,0xe2,0xd,0x5,0x2,0x3,0x3,0xfb,0xf2,0xfc,0xf8,0xe1,0xd1,0xcf,0x2,0x4,0x4,0xf6,0xeb,0x8,0xe,0xf5,0xfc,0xfa,0xff,0xfe,0x17,0xe1,0xe6,0x2,0x5,0x2,0x11,0xee,0xc,0x0,0x3,0x2,0x2,0xfa,0xf8,0x0,0x14,0xeb,0xe5,0xd3,0x4,0x3,0x1,0xe1,0xf8,0xfe,0xe6,0xff,0xfb,0x1,0xf3,0xce,0xfa,0xd9,0x11,0x33,0x1,0x3,0xe1,0x7,0x11,0x0,0x1,0xdc,0xff,0xee,0x9,0x1,0xa,0xc,0x15,0xfb,0xff,0xff,0x0,0xfe,0xef,0x2,0xe,0xf9,0xd,0xa5,0xe6,0xb,0xf8,0xf,0x7,0x3a,0x0,0x1,0xfb,0xfe,0x7,0x1,0x1,0xeb,0x5,0x2b,0xc,0x4,0x7,0xb,0x8,0x1,0x0,0x0,0x4,0x30,0xef,0xf,0xfa,0xfb,0x14,0xd3,0x6,0x3,0x15,0x7,0xef,0xfa,0xb,0x4,0x1,0xff,0x17,0x0,0xfc,0xf1,0x4,0xa,0x13,0x3,0xf1,0x5,0x13,0xf6,0x4,0xfb,0xfe,0xd,0xd5,0x0,0x4,0xf9,0x27,0xed,0xfc,0x9,0x17,0xb,0xe9,0xf0,0x2,0x3,0xe,0xc5,0x17,0x5,0x3,0x8,0xf9,0x1,0x1,0x0,0x20,0xf8,0xfe,0xe1,0x4,0x0,0x4,0x9,0xf3,0x5,0x9,0xf2,0xff,0xfb,0xf,0xf,0x10,0xb,0x1,0xfa,0x1,0x0,0xc,0xed,0xb,0x4,0x1,0xed,0x3,0x14,0xf4,0x4,0xf6,0xea,0xe5,0xd7,0xff,0xf7,0xfd,0xd,0xf2,0x5,0xf4,0xf2,0xe6,0xe3,0x9,0xc6,0x1f,0xd2,0x25,0x9,0x3,0x4,0xd4,0x3,0x8,0x1,0x2,0xc0,0x7,0xe8,0x3,0x0,0x10,0xb,0xf7,0x10,0x0,0x2,0xfd,0xa,0x16,0xa,0x0,0xeb,0x5,0xe6,0x22,0x17,0x17,0xf2,0x9,0x20,0xff,0x0,0xd4,0x0,0x10,0x5,0x5,0xd7,0x2,0x20,0x49,0x9,0xf2,0x26,0x5,0x1,0xfc,0x1,0x3,0xe5,0xe9,0xe,0xde,0xf2,0x13,0xf5,0xa,0xe,0xfd,0xd,0xf0,0xe2,0x5,0x5,0x4,0xe8,0x2b,0x1,0x1,0xd7,0xfa,0x24,0xf,0xf8,0x1a,0xf1,0x2d,0xa,0xfd,0x4,0x1,0xdf,0x4,0xfe,0x30,0x4,0xe8,0x9,0xd5,0x1d,0xef,0xfe,0xff,0xfe,0x3,0x2,0x13,0xc0,0xf3,0x4,0x0,0xea,0xf8,0xd,0x6,0xfb,0x8,0xeb,0x20,0xb1,0x1,0x2,0x0,0xb,0x6,0x9,0x6,0x12,0xdc,0x2,0xeb,0xeb,0x10,0x28,0xf,0x1b,0xff,0xfa,0x11,0xf,0xa,0x2,0xfe,0xf6,0x2,0x5,0x7,0xfd,0xfe,0x6,0xa,0xfd,0x4,0x0,0x1,0xfa,0xdb,0xa,0x1,0xd,0xed,0xeb,0xc,0xdc,0x11,0xfc,0xe0,0x3,0x0,0x2,0xfa,0xe4,0x1b,0x2,0x1,0xe9,0x4,0x39,0x27,0xfe,0x5,0x4,0x13,0x5,0x2,0x4,0x2,0x1,0xee,0xd,0xf8,0xef,0xe5,0xd3,0xb,0x38,0x1e,0xfe,0x97,0xca,0xfc,0xfe,0xf9,0xf5,0x30,0x2,0xfe,0xe7,0x5,0xf9,0xfd,0xfe,0xe,0xe7,0x28,0xd,0xfe,0xff,0x3,0xdd,0xcf,0x8,0xdb,0xec,0xe0,0xf6,0xf7,0x1c,0xd,0xfb,0xe3,0xe7,0xfd,0x2,0x0,0xe9,0x2a,0x1,0xfb,0xd,0xf7,0x1,0x3,0xff,0xed,0xd9,0xd,0x15,0x2,0x2,0x2,0x4,0x1e,0xfc,0x6,0x8,0xd9,0xf,0xfd,0x22,0xfa,0xf8,0xda,0xff,0x1,0x2,0xfd,0xfa,0x7,0x2,0x4,0xfc,0x7,0x8,0x6,0x9,0xf,0xf0,0xf,0x6,0x0,0xfe,0x2,0xf4,0x3c,0x5,0xf5,0xf7,0xf,0xd,0xfb,0xb,0x18,0xf4,0x11,0x0,0x3,0x1,0xf9,0x6,0xfd,0x1,0xfe,0xef,0xfd,0xf6,0x8,0x5,0x0,0xfc,0xfc,0xfe,0x1,0xfb,0x4,0x0,0x13,0x1,0xfc,0xea,0x8,0x1,0xfb,0xfd,0x7,0xa7,0xf8,0x9,0xfd,0x3,0xd7,0x13,0x1,0x1,0xfe,0xf4,0xfb,0xe8,0xdc,0x7,0xee,0xe8,0x21,0xa,0x3,0x3,0x4,0x2,0xf,0x7,0xe2,0xf6,0x6,0x6,0xf7,0x11,0xf6,0xe8,0xfc,0xdf,0xfb,0x3,0xea,0xe,0xe8,0x2,0x2,0xed,0x0,0xda,0xb5,0x0,0xf2,0xe4,0x14,0x4,0x1,0xfc,0xfd,0xeb,0xec,0x1,0xd0,0xf9,0x13,0x27,0x12,0x10,0xff,0x1,0xff,0xfe,0x2,0xfc,0xfe,0x2,0x1,0xfd,0xfc,0x0,0xfd,0x0,0xfe,0x1,0xfc,0xff,0x1,0xfd,0xff,0xfd,0xff,0x1,0xfd,0xfb,0xfd,0xfe,0x0,0xff,0xfe,0xfd,0x1,0x1,0x1,0xff,0xff,0x2,0x1,0xff,0x2,0xfd,0xff,0x1,0x0,0x0,0xff,0x2,0xff,0x2,0xfe,0xfe,0x0,0xfc,0xfd,0xfc,0x1,0xfc,0x2,0x0,0x2,0xfd,0xff,0xfe,0xfc,0xfe,0x1,0xfb,0x2,0xff,0x1,0x0,0x1,0xfb,0xfe,0xfe,0xff,0x0,0x2,0xfe,0xfc,0xfe,0x0,0xfd,0xff,0x1,0xfe,0xff,0xfd,0xfd,0xfe,0xfe,0xfd,0x1,0xfc,0x1,0xff,0xfe,0xfd,0xfe,0xfc,0x1,0x1,0xfd,0xfc,0xff,0xfd,0xfe,0x0,0xff,0xff,0x0,0xfe,0xfc,0x1,0x0,0xfe,0xff,0xfc,0xff,0xfd,0x1,0xfe,0xff,0x0,0x0,0xfd,0xfc,0xfd,0x0,0xff,0xfe,0xfb,0xfe,0xfd,0xfe,0x0,0xfc,0xfe,0xff,0x1,0xfc,0xfd,0xfe,0x0,0xfe,0x0,0xfe,0xff,0xfe,0xfe,0xfc,0xfb,0x1,0xfe,0xfd,0xfc,0x2,0xfe,0xfc,0xfe,0xfe,0xff,0xfc,0xfe,0xfe,0x0,0xff,0x1,0xfc,0xff,0xfe,0x1,0xfe,0x0,0xfd,0xfd,0xfc,0x2,0x0,0xfb,0xfe,0xfd,0xfc,0xfd,0x0,0x0,0xff,0xfe,0x0,0x0,0x0,0xfe,0xfd,0xff,0x0,0x0,0xfe,0xfc,0x0,0xfc,0xfe,0x0,0xfc,0xff,0x0,0x0,0xfe,0x0,0x1,0x1,0x2,0x3,0xff,0xfc,0xff,0xfb,0xfd,0x1,0xfe,0x1,0xfd,0xfd,0xfb,0xff,0xff,0xfe,0xfe,0x0,0xfd,0xfe,0xfd,0xfe,0xfd,0x1,0xfd,0x1,0xfc,0xff,0xfe,0xfd,0x0,0x1,0xff,0xfc,0xfd,0xfe,0x0,0x1,0xfd,0xfd,0xfd,0xff,0x2,0xfe,0xfc,0xfb,0x1,0xfe,0xff,0xfc,0xff,0xfe,0xfe,0x3,0xfb,0xfe,0x2,0xfb,0xfc,0x1,0xfd,0xfe,0xfc,0xfe,0xfd,0xff,0xfc,0x0,0xfb,0xfc,0x0,0x3,0x2,0x2,0x0,0xff,0x1,0xfb,0xfe,0x1,0xff,0xfe,0xfe,0x1,0xfe,0xfd,0x0,0xfc,0x1,0xfc,0xfb,0xfe,0xfc,0x0,0xff,0xfe,0x1,0x0,0xfb,0xfd,0xfc,0xfb,0xfd,0xff,0xff,0xfd,0x0,0x0,0xfc,0xfc,0x2,0x2,0xfd,0x0,0xfe,0xfe,0xfd,0xfe,0x1,0x3,0xfd,0x1,0xff,0xff,0xfe,0xfe,0xff,0xff,0xff,0xfe,0x0,0xfd,0x2,0xff,0x1,0x0,0xfe,0xfc,0x1,0xfe,0xfd,0xff,0xfe,0xfd,0x0,0x0,0xfd,0x0,0xfd,0x1,0xfc,0xfe,0xfc,0xfe,0xfd,0xfe,0x3,0xfe,0x0,0xfb,0x2,0xff,0xff,0x2,0x0,0xff,0x2,0xff,0xff,0xfc,0x1,0xfc,0xfc,0x2,0xfe,0x0,0xfe,0xfc,0xfd,0xff,0x0,0xfe,0x0,0xfe,0x0,0x0,0xfb,0xff,0xfe,0xfe,0xff,0xff,0x0,0xfd,0xff,0xff,0xfd,0x0,0xfe,0xff,0xfb,0x1,0xff,0xfb,0xfc,0xfd,0xfe,0x0,0x0,0x0,0x0,0x0,0xfc,0xff,0x0,0xfe,0x1,0xfc,0x1,0xfe,0xfb,0xfd,0xfc,0xfc,0xff,0xfe,0xff,0xff,0x0,0xff,0x0,0xfb,0x1,0xfe,0xfe,0x0,0x0,0xfe,0x0,0x0,0xff,0xfd,0xfc,0xfe,0x0,0x1,0x0,0xfd,0x0,0x0,0xfe,0xfc,0x0,0x0,0xfe,0xfc,0xfd,0xfd,0xff,0xff,0xff,0xfb,0x0,0xfc,0x2,0xff,0xfe,0xfc,0xfd,0x2,0x2,0xff,0x0,0x1,0x1,0xff,0xfe,0xfe,0xfd,0xff,0x0,0x1,0xfe,0x2,0x0,0xff,0xfe,0x0,0x1,0xfd,0x0,0x2,0x1,0x0,0xff,0x1,0xfe,0xfe,0x1,0xfd,0xff,0x0,0xff,0xfe,0xfe,0xfd,0xfd,0x0,0x3,0xfd,0x0,0xfe,0xfd,0x0,0x1,0xff,0x3,0x2,0xfe,0x0,0x1,0xff,0xfe,0xff,0x0,0xff,0x1,0xfb,0xfe,0xfe,0x0,0xfb,0xfe,0xfc,0x1,0xfe,0xfd,0x0,0xfc,0xfc,0x1,0x3,0x0,0xfe,0x0,0x0,0xfb,0xfe,0xfc,0xff,0x1,0x0,0x2,0xff,0xfd,0xff,0xfc,0xfc,0x1,0x0,0x0,0x0,0xfc,0xfe,0x1,0xfe,0xfb,0x0,0xfe,0xfd,0xff,0x1,0xfc,0xfd,0x1,0xfc,0x2,0x0,0xfc,0x1,0xfc,0x0,0xff,0xfe,0xfb,0xfe,0xfe,0x3,0xfd,0xfe,0x2,0x0,0x2,0xfe,0x0,0xff,0xfc,0xfd,0xfd,0xff,0xfd,0xfe,0xfc,0x2,0xfe,0xfe,0xfd,0xfd,0xfd,0xfe,0xfb,0xfe,0xff,0xff,0xfd,0x1,0xfd,0xfe,0xfe,0xfc,0x0,0xfb,0x3,0xfe,0xff,0xfe,0xff,0x2,0xfd,0x1,0xff,0xfd,0x0,0xff,0xfc,0x0,0x2,0xff,0xfd,0xfe,0xff,0xfb,0x3,0x0,0x2,0x1,0xfe,0xfc,0xff,0xfd,0x2,0xfe,0xfc,0xff,0x3,0x1,0x1,0x2,0xff,0xfe,0xfd,0x1,0x1,0xfc,0x0,0xfe,0xfd,0xfd,0x0,0x0,0x0,0xff,0xff,0x0,0xfc,0x0,0xff,0x3,0x1,0xff,0xff,0xfd,0x0,0xfe,0xfe,0xfc,0x0,0xfe,0xfe,0xfe,0x0,0xfb,0x2,0xfd,0xfe,0x1,0xff,0xff,0xfc,0xff,0x0,0xff,0xff,0xfc,0x2,0xfe,0xfe,0xfe,0xff,0xfd,0xff,0xfe,0x1,0xfb,0xfb,0x1,0xff,0xff,0x1,0xfd,0x2,0x0,0xfe,0x0,0x0,0x0,0xff,0xfe,0xfe,0xfc,0xfc,0xff,0xff,0xfc,0xff,0xfc,0xfe,0xff,0xfc,0xfd,0xff,0xfe,0xfc,0xfc,0xfd,0x0,0x0,0xfd,0xfe,0xfb,0x1,0xfe,0xff,0xfd,0xff,0xfb,0xff,0xfc,0x0,0xfd,0xff,0x0,0x0,0xfe,0xfe,0xfe,0xfe,0xfd,0x0,0xfd,0x1,0x0,0x2,0xfc,0x0,0xfe,0x0,0x3,0xfe,0xfb,0xfd,0xff,0x1,0xfc,0xfe,0xff,0xff,0x2,0xfb,0xdc,0x2b,0x23,0xd0,0x0,0x0,0x7,0x1a,0xbf,0xff,0xfd,0xe,0x5,0xee,0xf3,0x2,0xef,0xff,0xfe,0xe3,0x1,0x1,0x0,0xfc,0xd9,0x2,0xeb,0xef,0xe1,0x5,0xef,0x8,0xcf,0x2,0xf1,0xf3,0xfd,0x0,0x17,0xf6,0xf2,0xfe,0x4,0xfe,0xc,0x26,0xf3,0x2,0x14,0x32,0xd3,0xec,0x0,0xfb,0x1,0xf0,0xf0,0xc,0x4,0xf8,0xe8,0x1c,0x30,0xfd,0x7,0x10,0xdd,0xdc,0xfc,0xfe,0x2b,0xd4,0x16,0xfd,0x2,0x3,0x7,0x0,0xfc,0x1,0x10,0x7,0xa,0xef,0x0,0x3,0xfc,0xef,0xf7,0x5,0x0,0x1,0xe5,0x3,0x9,0xc5,0x19,0x1c,0x19,0xf0,0x2,0xff,0x28,0xc3,0x14,0x0,0xfc,0x16,0x3,0x18,0x1,0xf8,0x1d,0xb,0xa,0xba,0xfd,0xff,0xfc,0xc,0x2,0x1,0xfd,0xf7,0xbf,0xba,0x16,0xc8,0xfc,0xf4,0xd9,0xe1,0xfb,0x1,0x11,0xb8,0xf8,0x0,0x1,0xfb,0xfb,0x13,0xde,0xff,0x32,0xef,0xfb,0xf2,0x2,0xff,0x0,0xee,0xeb,0x0,0xf8,0xfe,0xc1,0xa2,0xfe,0x7,0xc7,0xfb,0xff,0x16,0xfe,0xfd,0xee,0x3f,0xb,0x0,0xff,0xf3,0x0,0xf2,0x9,0x5,0xc9,0x3,0xe,0xfd,0x1,0xfc,0xfd,0xfe,0xe5,0xf7,0xea,0xef,0xfa,0xe2,0xf6,0xfd,0xa,0x3,0xf4,0x1,0xfe,0xfc,0xee,0x3e,0xb8,0xff,0x0,0xef,0x1,0x9,0xfe,0x1,0x6,0x1f,0xf4,0xe3,0xfd,0x1,0xff,0x0,0xf1,0x8,0xf5,0xf9,0x3,0xd6,0xe1,0xd8,0x0,0x32,0xd,0xe,0xfb,0xfe,0xf8,0x1b,0xe0,0x0,0xfd,0x2d,0x6,0xf3,0xc,0xf9,0x5,0x20,0x2d,0xee,0xfd,0xfd,0x0,0x0,0xf4,0x5,0x8,0xf8,0x14,0xec,0xe4,0xc9,0xef,0x31,0xed,0x1f,0xfe,0xff,0x1b,0x2,0x13,0x3,0x0,0x1a,0xf7,0xe,0x23,0xfc,0xb,0x19,0x11,0x6,0xfe,0xfe,0xfc,0x18,0xeb,0xfd,0xf2,0xf8,0xfd,0xe3,0xe5,0xf9,0xfb,0xf9,0x6,0xeb,0xfd,0x0,0xf7,0xe9,0xf7,0x2,0x4,0xfa,0xf3,0xf7,0xdd,0x3,0xe5,0xcd,0xe6,0x0,0x0,0xfc,0x5,0xeb,0xe1,0xf5,0xe7,0xff,0xd0,0xf2,0xf8,0xa,0xb5,0x0,0x1e,0x13,0xfd,0xfe,0xe3,0x2a,0xf2,0xfb,0x0,0xc8,0xfe,0xfb,0xc,0xfe,0xe2,0xf0,0xfe,0xf2,0x0,0xff,0x0,0x11,0x19,0x5,0xee,0xed,0x7,0xe4,0xd3,0xe7,0xc5,0xe6,0x12,0xf,0xfc,0xfe,0xdf,0xf0,0xd2,0xfd,0x0,0xd0,0xfd,0xc8,0x1c,0x4,0xa,0x4,0xe4,0x8e,0x0,0xfc,0x1,0x8,0x20,0x0,0x1a,0x2,0x27,0xfd,0xde,0xfa,0xf0,0xbd,0xe5,0xe,0x0,0x3,0xde,0xec,0xe9,0xfd,0xfd,0xec,0x4,0xf1,0x7,0x0,0x24,0x11,0x34,0xff,0x0,0x5,0xfb,0xf1,0x15,0xf6,0x2c,0xfd,0x19,0x7,0xea,0xd8,0xe9,0x3,0xe6,0xef,0x1,0xfc,0xeb,0x24,0xb9,0x2,0x4,0x12,0x7,0xc0,0x12,0xfc,0xf1,0x27,0x7,0x22,0x5,0x4,0x0,0x1,0xb,0x2,0xfc,0xf8,0x28,0xfc,0xdf,0x11,0xd,0x17,0xf9,0xf3,0x0,0xfc,0xbf,0x15,0xd6,0xfd,0xfb,0xe8,0x6,0x1e,0xf3,0xfd,0xef,0xe6,0xf0,0xe,0x1,0xfd,0x3,0x19,0x46,0xf8,0xff,0xf2,0x4,0x23,0xe9,0x9,0x6,0xfd,0xf8,0x2,0x0,0xfe,0xe8,0xfd,0xce,0xff,0xfe,0xe,0xfd,0xeb,0xf0,0x1,0x1a,0xe7,0xe2,0x9,0xfd,0xfe,0x2,0xa,0x11,0x3,0xf1,0xee,0xb,0x11,0x8,0x2c,0x21,0xf2,0x0,0xfa,0x1,0x0,0xc6,0xf7,0xd8,0xff,0x1,0xb,0xf6,0xf6,0xe4,0xfc,0xf3,0xe7,0xb7,0xca,0xfd,0x4,0xfd,0xed,0x8,0x9,0xd9,0xfa,0x6,0x1b,0xb,0x22,0xb,0xbc,0xf5,0x2,0x3,0x5,0xee,0x22,0xfe,0x1,0xfc,0xbe,0xf7,0xfc,0xad,0xff,0xc,0xe3,0xf0,0x22,0xfd,0x4,0xff,0x2,0x4,0xfd,0xfa,0xf5,0xe6,0x17,0x28,0xc3,0x8,0xd7,0xf8,0xf0,0x0,0x1,0xe6,0x1a,0x8,0xfe,0x5,0xcf,0x3,0xe,0xf8,0xff,0xe9,0xf5,0xeb,0xf9,0xff,0xfe,0x0,0xff,0x10,0x3,0x2b,0xf2,0xa,0xe3,0x6,0xd2,0xb,0xfd,0x7,0x28,0xfd,0xfb,0x14,0xf5,0xf6,0xfd,0xfd,0xda,0xf6,0x37,0xf,0xfc,0xe,0x9,0xe1,0x3,0xfd,0x0,0x0,0xb,0x22,0x1,0x4,0xef,0xfc,0x32,0x5,0xd1,0xb,0x8,0xfb,0x15,0xfe,0xff,0xd,0xfe,0xfd,0xff,0xfb,0x1b,0xfc,0xfc,0xed,0xff,0xfe,0xd,0x20,0xfd,0x0,0x0,0x1,0xf9,0xae,0xfa,0xfe,0xf4,0x8,0xdf,0x13,0x1b,0xb,0x1e,0x4,0x1f,0xfe,0xff,0xff,0xeb,0xcf,0x0,0xfd,0xf3,0xfc,0xfc,0xf6,0xe,0xe3,0xd,0xd0,0xbd,0x0,0xff,0x1,0x4,0xb3,0xfb,0xba,0xf1,0x4,0xd6,0x2f,0xfd,0x1b,0xdb,0x8,0x13,0xff,0xfc,0xfb,0xc8,0x15,0x0,0xff,0xc8,0xff,0xf9,0xff,0x8,0x23,0x11,0xd0,0xc5,0xfc,0xfd,0x2,0x20,0xa5,0xfc,0xe1,0xea,0x17,0xc3,0x1b,0xdd,0x3b,0xf5,0xf9,0xf8,0xfe,0xfe,0x17,0xd3,0x1d,0x0,0xff,0xc0,0xfe,0x1b,0xc,0xfa,0xf1,0x4,0xe8,0x90,0xfe,0x0,0x1,0x6,0x24,0xf4,0xff,0xfe,0xf0,0xd2,0x11,0x8a,0x13,0xd,0xc,0x1,0xfe,0xfc,0x25,0xe2,0x3,0x0,0x0,0x13,0x3,0x3f,0x18,0xfc,0x11,0xf8,0xed,0xe2,0xfb,0xfc,0x0,0x19,0x47,0xa,0x24,0xf3,0xe9,0xc4,0x1f,0xe0,0xff,0xeb,0xe1,0xe2,0x1,0x3,0x0,0xf0,0xfc,0x1,0x4,0xe2,0xf6,0xe0,0xda,0x0,0xfe,0xd,0xd8,0x1a,0xff,0xfe,0x1,0x1,0xd7,0xfe,0x1,0x10,0xde,0xe9,0xff,0xdb,0x32,0x13,0xde,0xdf,0xff,0x3,0x15,0x13,0xeb,0xfe,0xfd,0xc,0xfd,0xf4,0xcf,0xff,0x9,0xb,0xf1,0xf2,0xfd,0xff,0xfd,0xe0,0xf9,0xfc,0xfa,0x1a,0xdb,0xf5,0xfe,0x23,0x18,0xe3,0xf7,0xff,0x1,0xfb,0x2,0xf1,0x1b,0x0,0xfd,0x12,0xfa,0xe1,0xf6,0x0,0xc3,0x12,0x1f,0x6,0x0,0xfc,0x0,0xd5,0xf4,0xfc,0xe0,0x3,0x1,0xe9,0x2,0x2d,0x33,0x23,0xee,0xfa,0x0,0xff,0x5,0x19,0xf8,0xfd,0x1,0x19,0x6,0x0,0xf2,0x0,0xde,0x26,0x6,0x11,0xfd,0x0,0x0,0xd7,0x9,0xfa,0xe2,0x6,0xf4,0x3,0xe1,0xf2,0x24,0x8,0xf4,0xd6,0xfd,0xff,0x5,0x20,0xb,0x1,0xfd,0x14,0xff,0xb,0xf2,0xf9,0xcd,0xf4,0xe,0x1,0x0,0x0,0xfe,0xe7,0xde,0xe,0xe9,0x5,0xef,0x2e,0xdd,0x18,0xa,0xe6,0xdd,0xd0,0xfe,0x4,0xf1,0xb,0xf9,0xff,0x4,0xc8,0x4,0x8,0xca,0x4,0xf6,0xe0,0xf2,0x18,0x1,0xfc,0x2,0x0,0xea,0x1,0xa,0xb,0xf7,0xd6,0x10,0xdd,0xd7,0xeb,0xf5,0x4,0xfb,0x1,0x6,0xc5,0xd4,0xfe,0xff,0x6,0x1,0xf5,0xe8,0xff,0xed,0xdb,0x1c,0xd8,0xff,0x0,0x1,0x0,0x4,0xfe,0xfc,0x11,0xd,0xf4,0xf6,0xe8,0xd2,0x33,0xf5,0xe1,0xfc,0xfd,0xf,0xf5,0x25,0xfd,0xff,0xd,0xfd,0xcc,0xe7,0x2,0xeb,0xd7,0xed,0xfa,0xfc,0x0,0xfd,0xe9,0xf8,0xfd,0xea,0xa,0xf5,0x8,0x1a,0x17,0xdc,0x27,0xef,0xfa,0xfb,0xfe,0xfc,0x10,0x13,0x0,0xff,0x4,0xfe,0xeb,0xb,0xfb,0xda,0xee,0xfa,0x8,0xfd,0xff,0xff,0xb,0xd3,0xfd,0xf7,0x19,0xd,0x20,0xf5,0x7,0xee,0x6,0xe5,0xca,0xfd,0xfb,0x1e,0xff,0xc,0x0,0xfe,0x21,0x1,0xd7,0xe0,0xf9,0xe4,0xd9,0xf3,0x1,0xfd,0xff,0x2,0x3,0xec,0xfd,0x8,0x17,0xee,0xfe,0xed,0xf2,0xf6,0xc9,0x3,0xfb,0x1,0x0,0xe3,0x2,0xf1,0x3,0x0,0xbb,0xfd,0xf7,0xd5,0x1,0xf5,0xfa,0x6,0xf4,0xff,0xff,0xfc,0x10,0x11,0x5,0x1c,0xc,0xfd,0xf8,0xe9,0xee,0xdc,0xd8,0x6,0x1b,0xfc,0xfe,0xee,0xe3,0xf7,0xfc,0xff,0xc,0xfd,0xe8,0xec,0xfc,0xe0,0xf4,0xf7,0xde,0x0,0xfd,0x0,0xd,0xe9,0xfe,0xff,0x11,0xf3,0xf0,0xcc,0xa,0xa5,0xe5,0xf9,0xef,0x0,0xfe,0xfb,0x12,0xfa,0x0,0x3,0x5,0xfe,0xc5,0xe9,0xfc,0xd8,0xef,0x16,0xf2,0xfc,0xfc,0xff,0xaa,0xe4,0xfc,0xef,0xd,0xf3,0xd,0x2,0xf8,0xd8,0x15,0xe6,0x8,0x0,0x0,0xec,0xff,0xf1,0xfd,0xfe,0xbf,0x0,0x0,0xe4,0x2,0xc4,0xf1,0xd,0x7,0xfc,0xff,0xfb,0xc9,0xf8,0xff,0xf3,0x12,0xf2,0xfb,0xef,0x4,0xe5,0x20,0xdd,0x1d,0xff,0x1,0xec,0xe4,0xdc,0x0,0x0,0xff,0xfe,0x1e,0xd4,0xf9,0xf8,0xd7,0xca,0xf4,0xff,0x2,0xfd,0xef,0xe0,0xfc,0xd0,0xd,0x1,0xfa,0xe5,0xd1,0xcb,0xd7,0xfb,0xec,0x1,0x0,0xfa,0x23,0xba,0xff,0xfd,0xf0,0x1,0xf5,0xe6,0xfb,0x1,0x11,0xe0,0xff,0x0,0xff,0xfc,0xe5,0x0,0xfd,0xeb,0xa,0x36,0xfa,0xe,0x0,0xc2,0xd2,0xfa,0xe7,0xfc,0x1,0xe3,0xf3,0x2,0xfe,0xfd,0xc,0xfe,0xf2,0xfb,0xfc,0xd0,0xec,0xd,0xeb,0x1,0xfd,0xfd,0xea,0xde,0xff,0xf2,0xa,0x13,0x0,0x9,0x37,0xdd,0x38,0xf3,0xe3,0xfe,0xfc,0x22,0x2b,0xf7,0xff,0x1,0xb,0xfe,0xe9,0xee,0x2,0xea,0xfc,0xb,0x13,0x0,0x0,0x0,0xca,0xf3,0xff,0xf4,0xc,0xfe,0x4,0x3,0xf6,0xfd,0xff,0xc4,0x1e,0xfc,0x0,0xe8,0xef,0xf2,0x1,0xff,0xda,0xff,0xa,0x11,0xf3,0xcc,0xf5,0xef,0x8,0xfb,0xfc,0x0,0xe8,0xf5,0x1,0x9,0x9,0x31,0xf1,0xe4,0xff,0xe8,0xf9,0xec,0xf7,0xfe,0xff,0x23,0xe2,0xf7,0xfd,0xff,0x17,0xf9,0x0,0xf,0xf6,0xe0,0x7,0xea,0xd0,0xfc,0x0,0xfd,0xe3,0x12,0xfa,0xea,0x2,0xf9,0xf9,0xe7,0x2,0xdf,0xf,0x2d,0xf0,0x0,0xfc,0xe5,0x28,0xcd,0xfd,0xfd,0xfd,0xfb,0xf5,0xf6,0xfe,0xfe,0xfe,0xeb,0xf9,0xfb,0xfe,0xfe,0xe6,0x13,0xfe,0xea,0x6,0x17,0x17,0xec,0x28,0xe5,0x14,0xfc,0xe7,0x0,0x1,0xd7,0x15,0xf2,0xfd,0xfd,0x8,0xfc,0xfa,0x5,0x7,0xee,0xe9,0xb,0x17,0xfe,0xfe,0xfd,0xf7,0x43,0xfd,0xe,0x8,0xed,0x1c,0x0,0x1f,0xdf,0x2d,0xfa,0x8,0xfb,0x0,0x7,0x16,0xf7,0xfc,0xfe,0x12,0xfd,0xe,0xe8,0x6,0x2,0xdd,0x3f,0x0,0xfe,0xfd,0xfd,0xd1,0x16,0x3,0x33,0xc,0x8,0xfd,0x28,0x15,0xd,0xf,0x2,0xfd,0x1,0xfc,0x5,0xee,0x15,0xfb,0xff,0xf8,0xff,0x1f,0xd5,0xf8,0x4,0x7,0x7,0x16,0xfc,0xff,0xff,0xe3,0xec,0xfa,0xe,0xe,0x14,0x2f,0x21,0xc,0xf5,0x1e,0xf3,0xee,0xff,0x1,0x17,0xcc,0xf5,0x0,0x1,0x19,0xfe,0xf9,0x19,0x2,0xf8,0xd9,0x1e,0xc8,0x0,0xfc,0xff,0xe4,0xe7,0xfe,0x1a,0xb,0x5,0xf4,0xfa,0xfb,0x8,0x8,0xf5,0xff,0xfe,0xff,0xfe,0x14,0xe6,0x0,0x0,0x21,0xfa,0xea,0xe4,0xff,0xf4,0x4,0xc2,0xda,0xfd,0x0,0x1,0xff,0xec,0x0,0x0,0xfc,0xfd,0xfd,0xc,0x36,0xd4,0x0,0xe,0xfd,0x2,0xff,0xf,0x2a,0xca,0xfc,0x0,0x7,0xf7,0xf9,0xcc,0x0,0x6,0xec,0xc7,0xe1,0xfd,0xfb,0x0,0x1c,0xb,0x8,0xb,0xfa,0x20,0x6,0xb,0xf4,0xef,0x13,0xd,0x14,0x2,0x1,0xf6,0xe9,0xeb,0x2,0xfc,0xce,0xf7,0xf5,0x1,0x3,0xfd,0xf8,0xe1,0xdc,0xff,0x4,0xff,0x6,0xe,0x3,0xf5,0xf4,0x20,0xf3,0x27,0xaf,0xca,0xe0,0x1e,0x1d,0xfc,0x1,0xb,0x5,0xfd,0x4,0x0,0xb0,0xf0,0x14,0x12,0xfa,0xf6,0xea,0xe5,0xed,0x0,0xfb,0x0,0x4,0x0,0xfe,0x5,0xf0,0xfe,0xba,0x0,0xe2,0xdc,0xed,0x11,0xf3,0x3,0xfd,0x9,0x14,0xbe,0x2,0xfd,0x20,0xf6,0x14,0x2,0xfe,0xfd,0xfb,0xc3,0xe4,0x1,0xfc,0xfc,0xf6,0x10,0x1,0xe,0xef,0xf,0xc0,0xe2,0xf3,0xfb,0xe9,0xd8,0xb6,0xfc,0xfc,0xf6,0x10,0xf5,0xfd,0xfe,0x7,0xf9,0xdb,0xc0,0xfd,0xd6,0x6,0xc5,0xe1,0x5,0xff,0xff,0xe0,0xd7,0xfb,0xe3,0x8,0xf5,0x18,0xda,0xed,0x11,0xf5,0x0,0xbb,0xfe,0x0,0xef,0xf1,0xd6,0x0,0x0,0x9,0xff,0xf3,0xdf,0xfd,0x6,0xf7,0xbb,0xdd,0x0,0x2,0xfb,0x1,0xf3,0x1,0xe3,0x1,0xc,0x6,0xf3,0x6,0x13,0xfb,0xfb,0xe2,0x3,0x1,0xe1,0xcc,0x1,0x3,0x2,0xdc,0xf8,0xf2,0x8,0x2,0xf9,0xf6,0xda,0xc2,0x3,0x1,0x4,0x6,0xff,0xfc,0xfd,0x7,0xfc,0xc,0xf6,0x83,0xe,0x1e,0x20,0x1c,0xfd,0xfd,0x1,0xf1,0xff,0xfe,0x4,0xdf,0xf8,0x8,0xd,0x4,0x4,0x12,0xfe,0xf6,0x3,0x5,0x2,0x6,0x13,0x4,0xf8,0xff,0x2c,0x93,0xe5,0x4,0xf4,0x7,0x23,0x14,0x0,0x0,0xe,0xe9,0x7,0x0,0xff,0xea,0xfd,0x32,0x9,0x5,0xf7,0x2b,0x0,0xe8,0x1,0xff,0x2,0xb,0xf6,0xe,0xfa,0x12,0xf,0xbc,0x4,0xf9,0xfe,0xf6,0xfc,0xf7,0x3,0xff,0xf9,0xff,0x11,0x2,0x3,0x2,0xfb,0xf0,0xe5,0xf9,0xd3,0xdf,0x11,0x9,0x2,0xff,0x2,0xf7,0xdd,0xf6,0xe2,0xed,0xd8,0x13,0xf6,0x7,0x12,0xfc,0xf4,0xf5,0x4,0x1,0x17,0xfa,0xfc,0xff,0x3,0xa,0xfe,0x1c,0x10,0x5,0x12,0xee,0x1b,0xfc,0x5,0x0,0xff,0x1d,0xdd,0xfe,0xee,0xf6,0xd0,0xf1,0x4,0x19,0xf8,0xfb,0xf9,0x10,0x1,0xfe,0x11,0xfd,0xe8,0x2,0x2,0x8,0xfd,0x28,0x16,0x5,0x4,0xed,0xa,0xe7,0x0,0x2,0xfe,0xe,0x1e,0xd,0x11,0xf9,0xd0,0xc,0xea,0xc7,0xbf,0xf,0xdc,0x4,0xff,0x0,0x5,0x14,0xf9,0xfe,0x2,0xd5,0x3,0x18,0xc,0xc,0x1,0x9,0xfd,0xd,0x0,0xfc,0x2,0xdf,0x14,0xb,0x11,0x2,0xdb,0xd6,0xe,0x25,0xe5,0x5,0xdc,0x22,0x0,0xff,0xcf,0xfa,0xfd,0xfe,0xfd,0xd0,0xf6,0x29,0x28,0x1,0xd9,0x1a,0x17,0x7,0x3,0x5,0xfe,0xdf,0x1,0x6,0xf0,0x7,0xe9,0x8,0xed,0x4,0xf5,0xa,0xd9,0xfd,0x4,0xfe,0x5,0xf3,0x2f,0x3,0x0,0xc9,0xf2,0xb,0xed,0xfc,0x13,0xe5,0x21,0x11,0xfe,0x2,0xfe,0xc,0x13,0xfc,0x18,0xff,0xfb,0xd8,0x9,0xf4,0x3,0x2,0x3,0xa,0x1,0xfe,0xd,0xbc,0xf8,0x4,0x4,0xc7,0x17,0x15,0xf,0xfd,0xfd,0x7,0x4f,0x6,0x0,0xfe,0x0,0xe,0x1b,0xf8,0xfd,0xdf,0xdc,0xc6,0xcd,0xc7,0xd5,0xd,0xfe,0x2a,0xfc,0x0,0x2e,0x17,0xd1,0xfd,0xfc,0xfb,0x5,0xf2,0xfd,0x6,0x5,0xd,0x25,0xfc,0x0,0x0,0xff,0xe,0xd,0xfd,0xee,0xc,0xf4,0xd9,0xb3,0xf8,0xd1,0x15,0xe2,0xdc,0x0,0x0,0x17,0x1e,0xe8,0xfd,0xfd,0xfd,0x8,0x4,0xf8,0xfe,0xf4,0xfb,0xf8,0x5,0x3,0xfe,0xff,0x89,0xf1,0xfb,0xfb,0xee,0x1,0xfa,0xfb,0x26,0x8,0x25,0xc5,0xf2,0xfe,0xfd,0x24,0xf1,0xe9,0x1,0x0,0xee,0xff,0xf2,0xe3,0xf1,0xfe,0xde,0x1e,0x0,0x0,0x2,0x0,0xac,0xe2,0xf6,0xc7,0xe1,0xf2,0xc,0x27,0xfc,0xf0,0xf9,0xcf,0x2,0x0,0xfc,0xfb,0x7,0x5,0xfc,0x2,0xf7,0xfb,0xfd,0x1e,0x1,0x11,0xd,0x19,0xfd,0xfb,0x1,0x4,0xfc,0x1f,0xb,0x8,0xf,0xfa,0xf7,0xe8,0x3,0xe1,0xd8,0x1e,0x22,0x2,0x4,0xf6,0xe4,0xfe,0x0,0xfc,0xf2,0x9,0xfb,0x6,0x8,0x3,0x1c,0x1f,0x9,0x1,0xfc,0xff,0x0,0x33,0x4,0x5,0xe7,0x8,0xe9,0xd1,0xfa,0xeb,0xfd,0x5,0x14,0xfe,0x1,0xca,0xd,0xcf,0x5,0x2,0x0,0xfc,0xe5,0x22,0x2,0xb,0x6,0x35,0xf,0x2,0x2,0xfc,0xf4,0x11,0xa,0xe9,0xfe,0x0,0x0,0xe6,0x13,0xf1,0xfc,0xee,0xd7,0xff,0xfd,0xf6,0xff,0xf2,0xfd,0x4,0x11,0xf7,0xf2,0xf7,0xff,0xd9,0xd,0x1e,0xfd,0x1,0x4,0x4,0xe9,0x1,0x3,0xf0,0xfd,0xff,0xe0,0x13,0xf7,0x3a,0x3f,0xe7,0xd2,0x2,0x0,0xfd,0xc,0x9,0xff,0xfc,0x2c,0xfd,0xfc,0xc9,0xfa,0xef,0xc2,0xf3,0xfc,0x0,0x3,0x1,0xa,0x32,0xfd,0xec,0xe3,0xf1,0x1e,0xa,0xf0,0x7,0xe,0x19,0x17,0x0,0x3,0x8,0xfd,0x2,0x5,0x2,0xef,0x12,0x19,0x27,0x0,0xf7,0x2,0x9,0xd7,0x3,0x1,0x4,0x10,0xf7,0x1,0xb,0x15,0x21,0x1e,0x0,0x17,0x5,0x6,0x28,0xc,0xfa,0x2,0xf,0xf3,0x15,0x3,0x0,0xe0,0xd,0x32,0x25,0x4,0x23,0x24,0x11,0x29,0x1,0xfe,0x2,0xed,0xff,0xf8,0xe,0x13,0xf2,0xd,0x22,0x8,0x1,0x1d,0xd2,0x15,0xff,0xfe,0x12,0xde,0x5,0x3,0x6,0xb2,0xb,0x15,0x2,0x5,0x2c,0x11,0x19,0xd7,0x1,0x0,0x2,0x9,0x0,0xf9,0x14,0x4,0x1,0xf5,0xf,0xac,0x11,0x9,0xe8,0x17,0x0,0x1,0x1b,0xd7,0x7,0x2,0xfd,0xca,0xfa,0xd,0x6,0xfd,0x1f,0xf1,0xf8,0xce,0x2,0x1,0xfb,0xf9,0xfc,0x2,0xe6,0x8,0xbc,0xaa,0xf2,0xd5,0x1c,0xf1,0xeb,0xee,0x0,0x3,0x7,0xd8,0x2,0x2,0x4,0xf2,0xfa,0xea,0x8,0xfa,0x0,0xfb,0xf7,0xdf,0x2,0x3,0x4,0xe1,0xd,0xff,0x6,0x12,0xd9,0xd5,0x26,0xd,0xdd,0xa,0xfd,0x15,0xf5,0x4,0xfb,0x1,0x10,0x4,0x1,0xfb,0xfa,0x8,0x8,0x3,0x12,0x33,0x9,0x6,0xfe,0x2,0x1,0x18,0x15,0x0,0xfb,0xb,0x1,0xf4,0xa,0xe3,0xc2,0x1c,0xb,0x1e,0x2,0x1,0xf5,0xf,0xec,0x2,0x1,0x5,0xc,0x0,0x12,0x1,0x8,0x4,0xeb,0xe7,0xff,0xfe,0x4,0xff,0x2,0x2,0xf4,0x10,0xfe,0xe3,0x5,0xf1,0xda,0x3a,0x1,0x2d,0x2,0x2,0xa,0xb,0xe3,0xfe,0xfd,0xd3,0x6,0x13,0xf3,0xf1,0x16,0x6,0xfc,0xee,0xfc,0xfb,0x2,0xd,0x10,0x5,0x10,0x13,0xf,0xb3,0xfa,0xc5,0x0,0x1,0xff,0x8,0x1,0x1,0xe3,0x18,0xf8,0x0,0xfe,0xe6,0x9,0xe9,0xeb,0xfe,0xf,0xe2,0xd,0x18,0x0,0x4,0xfc,0x5,0xe,0x6,0xb,0x2,0xe9,0xbb,0x25,0xfa,0x22,0x3,0xe6,0xd8,0x5,0x2,0xee,0x4,0xdd,0x1,0x2,0xfa,0xfe,0xeb,0xe1,0xf8,0xf5,0xcb,0x1,0x9,0x4,0x0,0x4,0xca,0x1,0x3,0xd6,0x1,0x14,0xf9,0xec,0xa,0xcd,0xe,0xb,0x1a,0xf9,0xfe,0xd2,0x18,0xf1,0xfe,0x2,0x2,0x9,0x4,0x21,0x3,0x1d,0x17,0xf0,0x13,0xfe,0x1,0x1,0xf8,0x1a,0x6,0x14,0xb,0x15,0xdd,0xe3,0xe,0xcb,0xa,0x2,0x19,0x1,0x0,0xc9,0x8,0xd8,0xff,0xfe,0xe9,0xfa,0xec,0x4,0xff,0xc5,0x5,0xfc,0x7,0x4,0xff,0xfe,0xc9,0x37,0xfc,0x1b,0xfe,0x30,0xf7,0xdf,0xce,0xef,0x39,0xa,0xc,0x1,0x0,0xfd,0x0,0xa5,0x0,0xfc,0xee,0x0,0x1b,0x2,0x5,0xda,0xf7,0x0,0xa,0x1,0x1,0xfc,0xe5,0x32,0xff,0xde,0x16,0x1e,0x1e,0xe5,0xfe,0xe,0xde,0xf6,0x18,0x3,0x0,0xf5,0x17,0x13,0x2,0x4,0xfd,0x3,0xf1,0xec,0x0,0x1a,0xf6,0xf7,0x1,0x0,0x4,0xfe,0x29,0xfb,0xfb,0x16,0xe,0x12,0x5,0x9,0xed,0x16,0xe,0xfb,0xfc,0x3,0x0,0x8,0xd,0x15,0x2,0x2,0xde,0x6,0xfe,0xf2,0xfc,0xe9,0xe2,0x17,0x3,0x3,0x3,0x4,0x18,0x2d,0x1,0xf7,0x15,0xfb,0xe,0xe9,0x4,0xed,0x2,0x18,0x25,0xfc,0xfd,0xdb,0x1b,0x9,0xfc,0x5,0xf2,0xfe,0xd0,0x16,0xb,0xe4,0xc,0x22,0xf0,0x1,0xff,0x4,0xe9,0xa,0x4,0x19,0x13,0x36,0xa,0xf7,0x6,0x7,0x2f,0x8,0xa,0x1,0x1,0xed,0xe,0x2,0x0,0x3,0xf5,0x2,0xe7,0x3,0x3,0xc9,0xfb,0x17,0xd5,0x1,0x1,0x2,0xe2,0x1,0x0,0x0,0x25,0x35,0x3,0xe9,0xf3,0x2,0xc,0x9,0x12,0xfe,0xff,0x2,0xe7,0x4,0x2,0xff,0xf9,0x3,0xf2,0x19,0x2,0x8,0xfb,0xff,0xfa,0xfb,0xff,0xfe,0x5,0xa,0xf9,0x13,0x9,0x1d,0x21,0x1,0x13,0x16,0xf0,0xe7,0x18,0x3,0x4,0x1,0xff,0xef,0x3,0xfd,0x6,0x9,0x9,0x25,0x8,0x1a,0x3,0xee,0xe7,0x2,0x3,0xfb,0xfe,0xff,0x5,0xd,0x8,0xfe,0x0,0x9,0xe7,0x5,0xf3,0xfe,0xe,0x0,0x4,0xee,0x7,0xe,0x0,0xff,0xfd,0xfc,0x13,0xed,0x8,0x3,0xfe,0x8,0xf8,0x4,0xfc,0xfb,0x20,0x1d,0x6,0xd,0xe,0xf4,0x14,0x0,0x8,0x3,0xd,0xd5,0xf5,0x3,0x1,0xfa,0x13,0x1d,0x2,0x4,0xec,0x2,0xeb,0xec,0xfe,0x12,0xf3,0x1,0x8,0x5,0xff,0x0,0x1,0xf6,0xf7,0x26,0xc,0xf0,0x16,0xf0,0x28,0x0,0xe2,0xf9,0x1d,0xfb,0xfb,0xf5,0x1d,0xed,0xfb,0xff,0xff,0x9,0xf8,0xeb,0xfa,0xec,0x22,0x1b,0xf8,0x0,0xfd,0xff,0x6,0x5,0xfc,0xf3,0x13,0xe,0x2d,0xff,0x29,0xf4,0xf4,0xf6,0x0,0x1,0xfe,0xa,0x3,0x8,0x3,0xfc,0x4,0xb,0xf6,0xec,0x5,0x7,0xfa,0x4,0x5,0x2,0xfd,0xff,0x3,0xfd,0xfb,0xf3,0xff,0xf2,0xa,0xfa,0xfb,0x29,0x11,0xed,0x17,0x2,0x0,0xdd,0x7,0x25,0x0,0xff,0xf6,0x6,0x17,0x25,0x7,0xdd,0x2,0x9,0x4,0xff,0x3,0xfe,0xf2,0x16,0xf7,0xf0,0x1d,0x7,0xe,0x5,0xe2,0xf2,0xed,0xee,0x2,0xff,0xfe,0xec,0x0,0x5,0xfe,0xff,0xdc,0xf8,